<unk>	0
<s>	0
</s>	0
<pad>	0
ga_GA	0
,	-3.29092
.	-3.73523
s	-3.82916
▁the	-3.96397
▁a	-4.17089
▁de	-4.20416
▁of	-4.40568
▁in	-4.57523
▁and	-4.69117
▁to	-4.71963
▁an	-4.86236
▁en	-5.12446
:	-5.14349
-	-5.14718
▁(	-5.18112
)	-5.19079
▁is	-5.24037
▁	-5.25938
e	-5.26058
▁la	-5.41776
a	-5.56166
▁agus	-5.61487
▁for	-5.6177
▁y	-5.67422
▁ar	-5.68548
ing	-5.80972
▁van	-5.81542
r	-5.82058
n	-5.84212
▁el	-5.85239
▁na	-5.85674
en	-5.90996
▁be	-5.94198
▁-	-5.94258
▁or	-5.94559
▁with	-5.96162
▁on	-5.96227
▁que	-5.99827
▁le	-6.01982
'	-6.02319
t	-6.03668
▁that	-6.08347
▁i	-6.10649
d	-6.11102
;	-6.11322
▁The	-6.14848
▁by	-6.22368
ed	-6.2871
▁een	-6.28847
▁los	-6.29131
▁as	-6.32682
▁het	-6.35582
o	-6.36616
▁you	-6.36909
▁go	-6.42148
▁"	-6.45275
▁do	-6.45413
es	-6.46647
▁are	-6.47829
▁this	-6.47891
▁con	-6.50515
▁from	-6.51994
▁nó	-6.5259
▁del	-6.54698
▁–	-6.54715
▁un	-6.57891
▁A	-6.59515
▁para	-6.597
er	-6.59729
▁sin	-6.63172
y	-6.6556
▁I	-6.66174
▁it	-6.67214
c	-6.67223
▁se	-6.69443
▁not	-6.70749
▁ag	-6.72187
b	-6.72938
▁no	-6.74956
▁te	-6.75594
▁op	-6.77452
í	-6.79006
▁at	-6.8017
▁las	-6.81341
▁d	-6.82095
/	-6.83417
▁your	-6.83844
▁met	-6.84973
▁voor	-6.86708
▁which	-6.90943
▁will	-6.9257
ly	-6.9259
?	-6.93574
▁can	-6.95213
i	-6.95226
▁una	-6.9662
▁shall	-6.97181
▁have	-6.97303
▁In	-6.97466
▁De	-6.98039
▁seo	-6.99212
al	-6.99839
▁was	-7.0102
▁por	-7.0103
...	-7.01367
▁su	-7.02376
in	-7.02936
▁1	-7.04211
▁S	-7.05885
▁es	-7.07209
▁chun	-7.07785
ar	-7.09387
▁any	-7.1032
▁leis	-7.10503
▁2	-7.11796
"	-7.14753
▁C	-7.15547
▁has	-7.18531
▁all	-7.19757
m	-7.19779
▁al	-7.21581
]	-7.21805
▁such	-7.22217
▁we	-7.2224
▁“	-7.23759
’	-7.24138
▁[	-7.24771
▁o	-7.25028
▁.	-7.25272
C	-7.2546
▁sa	-7.26197
le	-7.26632
▁é	-7.26822
▁den	-7.27777
l	-7.28265
▁sé	-7.28376
as	-7.28921
▁so	-7.30212
▁El	-7.30593
re	-7.3067
▁&	-7.31086
de	-7.31678
▁aon	-7.33392
▁t	-7.33924
h	-7.34169
▁faoi	-7.34555
▁La	-7.35082
▁3	-7.35527
ch	-7.35664
▁mar	-7.36552
▁D	-7.37518
g	-7.37652
▁zijn	-7.38053
te	-7.38396
S	-7.38503
on	-7.3972
an	-7.41594
!	-7.41975
▁may	-7.438
th	-7.44147
ir	-7.45035
ta	-7.45316
▁under	-7.46591
▁om	-7.46627
▁u	-7.4678
▁más	-7.48011
▁other	-7.48718
▁die	-7.49191
▁he	-7.50736
is	-7.51777
▁T	-7.52508
▁their	-7.53059
▁n	-7.53712
▁c	-7.54167
▁bhfuil	-7.5418
▁more	-7.54306
▁B	-7.54315
▁one	-7.55154
A	-7.57307
os	-7.57344
▁also	-7.57486
▁over	-7.57527
▁An	-7.57907
▁our	-7.58526
▁Act	-7.58869
amp	-7.5912
▁time	-7.59179
▁5	-7.5931
▁F	-7.60859
k	-7.60878
▁section	-7.62407
3	-7.62957
▁This	-7.64
▁don	-7.64182
▁aan	-7.65216
▁atá	-7.65385
▁4	-7.65611
▁P	-7.65697
”	-7.6578
or	-7.65974
ú	-7.66498
▁dat	-7.66582
▁G	-7.67071
▁E	-7.67153
2	-7.68135
▁como	-7.68278
f	-7.69861
▁they	-7.71141
▁L	-7.71769
do	-7.72019
▁ó	-7.72474
▁10	-7.72579
▁'	-7.7271
na	-7.72966
▁his	-7.73161
▁/	-7.73257
▁san	-7.73365
p	-7.73811
▁ina	-7.73908
ó	-7.74298
EN	-7.75015
▁lo	-7.75108
▁who	-7.76639
▁En	-7.76669
il	-7.77098
el	-7.77271
▁We	-7.77527
▁but	-7.79118
).	-7.79275
▁its	-7.79475
nd	-7.80627
us	-7.81021
ach	-7.81366
▁if	-7.81695
ra	-7.82056
se	-7.82115
u	-7.82313
▁It	-7.82539
x	-7.83148
▁been	-7.83308
▁out	-7.83529
▁m	-7.83909
B	-7.8402
▁chur	-7.84611
▁Dáil	-7.84873
▁re	-7.85256
▁je	-7.85774
▁new	-7.85811
la	-7.86355
▁M	-7.86908
▁person	-7.86961
▁6	-7.87661
▁about	-7.88056
▁maidi	-7.88102
▁bheith	-7.88652
▁alt	-7.89262
D	-7.90548
▁up	-7.90906
to	-7.91003
▁door	-7.91447
▁niet	-7.9164
ic	-7.9186
),	-7.9217
▁ha	-7.92297
ers	-7.92371
▁eile	-7.93361
▁dhéanamh	-7.93996
▁No	-7.9453
▁duine	-7.95019
it	-7.9644
▁V	-7.96736
(	-7.96766
▁made	-7.96785
▁(2)	-7.9699
▁h	-7.97219
st	-7.98138
▁Is	-7.9818
ca	-7.98935
▁dá	-7.99306
▁Tá	-7.99672
▁e	-7.99691
▁information	-8.005
▁2019	-8.00664
▁use	-8.01061
com	-8.01389
▁Het	-8.01761
lo	-8.0181
▁ver	-8.0229
▁puede	-8.02748
I	-8.02998
▁For	-8.03007
da	-8.03106
—	-8.03387
▁chuig	-8.03477
P	-8.03658
F	-8.04551
ro	-8.04809
▁there	-8.04944
v	-8.0511
T	-8.05265
▁U	-8.05398
▁me	-8.06953
▁than	-8.07754
▁K	-8.07811
ig	-8.0836
ne	-8.08641
▁H	-8.0986
▁12	-8.09862
ie	-8.09929
▁R	-8.0997
▁them	-8.0999
▁réir	-8.10002
▁after	-8.10199
▁8	-8.10502
▁tá	-8.10734
▁were	-8.10789
▁main	-8.12598
▁when	-8.12722
▁content	-8.12893
▁18	-8.13219
▁uit	-8.13667
▁only	-8.14032
▁order	-8.1407
▁7	-8.14334
▁into	-8.14593
▁aghaidh	-8.15651
z	-8.16059
á	-8.16164
▁naar	-8.16224
▁20	-8.16336
M	-8.16431
▁als	-8.16636
▁search	-8.16785
▁ná	-8.17043
▁km	-8.17307
▁first	-8.17724
▁15	-8.1773
ado	-8.17942
▁hotel	-8.18027
G	-8.18148
▁@	-8.18284
▁most	-8.18291
alt	-8.18577
mente	-8.18977
▁nach	-8.19322
▁sus	-8.1947
▁where	-8.19477
▁like	-8.19564
▁year	-8.19756
▁O	-8.20173
▁sobre	-8.20186
▁Minister	-8.20292
▁lena	-8.20673
▁gach	-8.21127
▁féidir	-8.21356
im	-8.21566
▁make	-8.21597
▁people	-8.21852
▁To	-8.22343
V	-8.22543
▁Acht	-8.22607
▁You	-8.22661
▁bheidh	-8.22978
▁free	-8.23012
ge	-8.23625
ma	-8.23828
▁online	-8.23848
ve	-8.24346
ia	-8.24419
▁per	-8.24607
ción	-8.24777
▁worden	-8.25407
▁European	-8.25506
no	-8.2557
able	-8.25737
▁uw	-8.26035
▁g	-8.26313
co	-8.26338
▁N	-8.2677
▁should	-8.2684
▁ge	-8.27259
▁had	-8.27266
▁best	-8.27487
▁day	-8.27545
▁would	-8.2756
▁ch	-8.27781
▁View	-8.28321
ten	-8.28548
▁If	-8.28631
▁son	-8.2881
▁air	-8.29117
L	-8.29567
▁tú	-8.30125
▁bij	-8.3066
ol	-8.30892
be	-8.31293
▁Le	-8.31348
gt	-8.32176
ary	-8.32428
▁He	-8.33359
▁b	-8.3338
▁Hotel	-8.3338
O	-8.33561
ce	-8.33623
▁níos	-8.33999
ion	-8.34121
ter	-8.35168
▁ní	-8.35172
▁(3)	-8.35454
igh	-8.35649
▁Al	-8.3568
W	-8.35703
net	-8.35801
▁2018	-8.36027
▁well	-8.36073
▁get	-8.36269
▁Skip	-8.36278
▁Los	-8.3628
▁said	-8.36498
▁ach	-8.36788
▁Re	-8.36919
▁9	-8.37074
▁some	-8.3762
mos	-8.37997
▁tot	-8.38206
den	-8.38217
▁está	-8.38288
E	-8.38294
▁before	-8.38488
▁si	-8.38723
the	-8.38868
▁And	-8.39023
▁Mar	-8.39141
mo	-8.39707
▁years	-8.40431
R	-8.40461
▁ook	-8.4047
▁deze	-8.40476
ad	-8.40604
▁these	-8.40667
▁cuardach	-8.40749
▁Léim	-8.4075
▁bed	-8.40873
▁very	-8.40943
w	-8.41236
▁W	-8.41314
▁(1)	-8.41317
▁service	-8.41729
ation	-8.41815
▁work	-8.41836
▁water	-8.42699
ll	-8.42891
▁wordt	-8.43211
▁us	-8.43301
am	-8.43361
▁Oireachtas	-8.43417
▁my	-8.44313
▁Ar	-8.44634
▁New	-8.44999
▁her	-8.45055
▁what	-8.45084
▁kan	-8.45092
▁—	-8.45425
ithe	-8.45543
K	-8.45546
▁used	-8.45551
▁16	-8.45552
▁two	-8.45735
ance	-8.45758
id	-8.46072
▁éis	-8.46238
▁este	-8.46388
▁account	-8.46526
ación	-8.46578
▁11	-8.46809
▁TV	-8.4709
▁area	-8.47152
▁him	-8.47604
▁mó	-8.47683
▁chuid	-8.47919
ábhar	-8.48462
ul	-8.4876
idh	-8.48837
ist	-8.48844
▁(32	-8.48913
▁case	-8.49011
▁Co	-8.49294
▁high	-8.49565
▁data	-8.49634
án	-8.50043
▁er	-8.50054
▁place	-8.50058
▁Be	-8.50164
▁part	-8.50379
▁s	-8.50672
▁30	-8.50708
▁ón	-8.50794
et	-8.50804
▁Na	-8.5138
▁need	-8.51753
▁take	-8.51765
▁world	-8.51989
▁San	-8.52147
▁company	-8.52552
▁available	-8.52746
▁haghaidh	-8.52927
▁f	-8.53113
▁esta	-8.53229
▁gcás	-8.53488
▁porn	-8.5359
▁14	-8.53743
4	-8.53763
▁gur	-8.53782
▁tar	-8.53798
▁weather	-8.54084
go	-8.54162
▁between	-8.54278
▁without	-8.543
N	-8.54376
▁Con	-8.54605
▁ser	-8.54878
dh	-8.54976
▁Parliament	-8.55268
▁beidh	-8.55442
▁those	-8.55615
bh	-8.55646
▁um	-8.55909
▁means	-8.56056
adh	-8.56245
▁dan	-8.56471
▁period	-8.56474
▁through	-8.56545
tar	-8.56746
GA	-8.56954
je	-8.57059
▁Normal	-8.57244
▁China	-8.5748
ur	-8.57482
▁within	-8.57665
me	-8.57729
▁iad	-8.57816
▁p	-8.58217
ver	-8.58441
▁Article	-8.58557
ine	-8.58649
▁faoin	-8.58836
▁quality	-8.59317
▁control	-8.59412
at	-8.59654
▁ann	-8.59736
▁tu	-8.59799
ri	-8.59867
▁¿	-8.59999
H	-8.60259
▁car	-8.6036
é	-8.60533
▁system	-8.60585
▁bpríomh	-8.60703
▁Search	-8.60709
▁19	-8.60903
▁each	-8.60961
▁á	-8.60972
▁being	-8.60991
▁many	-8.61031
▁Houses	-8.61162
▁Se	-8.61566
▁17	-8.61599
▁just	-8.6193
▁way	-8.61945
1	-8.62044
▁gan	-8.62054
▁wind	-8.62148
anna	-8.62322
▁_	-8.62428
um	-8.62576
▁Gnáthamharc	-8.62692
▁leith	-8.63175
gen	-8.63451
▁lá	-8.63767
6	-8.63829
▁Oireachtais	-8.6397
▁heeft	-8.63972
▁trí	-8.64025
tear	-8.64141
ity	-8.64312
▁thabhairt	-8.64399
▁0	-8.64405
▁Tithe	-8.64469
▁conditions	-8.64809
▁subsection	-8.64832
que	-8.6493
ke	-8.65004
ment	-8.65042
▁Si	-8.65235
7	-8.65321
▁respect	-8.65323
▁también	-8.65372
ada	-8.65697
▁amach	-8.65973
▁24	-8.66131
▁Council	-8.66574
est	-8.6689
▁following	-8.66896
▁co	-8.6699
▁dit	-8.67032
▁Sa	-8.67163
▁product	-8.67305
▁amháin	-8.67569
▁services	-8.67575
▁number	-8.6766
▁Commission	-8.67742
▁different	-8.68178
un	-8.68238
▁am	-8.68264
iú	-8.6834
▁—(1)	-8.68378
▁State	-8.68682
Â	-8.68954
▁Dé	-8.69181
li	-8.69345
▁same	-8.69369
op	-8.69732
▁Do	-8.69798
▁business	-8.69904
▁13	-8.70143
▁God	-8.70632
5	-8.71066
aí	-8.71163
▁meer	-8.71218
▁man	-8.71241
ba	-8.71274
▁products	-8.71336
vi	-8.71429
▁set	-8.71465
▁Ver	-8.71634
▁Ceisteanna	-8.71649
man	-8.71848
▁25	-8.72016
▁even	-8.72112
▁bhí	-8.72119
ry	-8.72186
▁On	-8.72229
▁good	-8.7227
tion	-8.7283
up	-8.7283
▁Amarillas	-8.73281
▁entre	-8.73414
▁2016	-8.73509
▁hebben	-8.73635
▁maar	-8.74011
acha	-8.74268
▁must	-8.74493
▁With	-8.74515
▁acu	-8.74547
▁website	-8.74601
▁siad	-8.74617
ting	-8.74915
▁how	-8.75105
U	-8.75124
▁here	-8.75213
▁2017	-8.7536
ann	-8.75588
▁As	-8.75595
9	-8.75602
▁light	-8.75653
ci	-8.7571
▁including	-8.75788
▁So	-8.76139
▁nua	-8.76469
▁room	-8.76538
▁Ní	-8.76653
ga	-8.76656
▁see	-8.76836
▁€	-8.76875
8	-8.76887
▁life	-8.77274
▁More	-8.77486
▁during	-8.77744
▁chomh	-8.78276
aithe	-8.78289
▁now	-8.784
▁Éireann	-8.78413
▁hotels	-8.78437
íonn	-8.78476
▁public	-8.78638
▁di	-8.78746
▁find	-8.79029
▁Ba	-8.79622
ton	-8.79843
▁isteach	-8.79915
▁land	-8.80373
der	-8.80444
ies	-8.80478
▁right	-8.80529
▁file	-8.8067
▁úsáid	-8.80678
▁help	-8.81208
".	-8.81232
▁todo	-8.81319
▁+	-8.81338
▁web	-8.81536
▁Car	-8.81539
Ã	-8.81615
▁because	-8.8162
▁ze	-8.8175
▁local	-8.81934
▁mbeidh	-8.82127
."	-8.82162
▁map	-8.82283
▁body	-8.82447
▁States	-8.82603
▁desde	-8.82791
▁want	-8.83316
▁waar	-8.83769
▁23	-8.83797
▁Y	-8.83846
ón	-8.83887
eann	-8.83899
▁22	-8.83976
▁date	-8.84045
▁days	-8.84185
ken	-8.84202
ac	-8.84204
ive	-8.84296
▁Z	-8.84567
▁every	-8.85014
▁real	-8.85132
ste	-8.85234
▁open	-8.85245
▁ba	-8.85347
▁application	-8.85776
▁féin	-8.86388
▁authority	-8.86865
▁‘	-8.86891
▁power	-8.86944
lu	-8.87025
▁(4)	-8.87159
▁she	-8.87395
▁Aire	-8.87449
▁own	-8.875
di	-8.87861
ndo	-8.88208
▁amount	-8.8838
▁name	-8.88513
▁méid	-8.88681
▁tiempo	-8.89178
dos	-8.89269
▁fáil	-8.89293
00	-8.89333
▁February	-8.89521
io	-8.89541
▁temperature	-8.89615
▁Twitter	-8.89748
▁personal	-8.89857
▁2015	-8.89912
▁Home	-8.89927
▁mór	-8.90094
▁project	-8.90183
if	-8.90302
▁alle	-8.90358
▁zal	-8.90468
▁kunnen	-8.90566
▁mejor	-8.90857
pe	-8.91012
bo	-8.91125
ti	-8.91244
▁All	-8.91266
ciones	-8.91468
tha	-8.91518
▁special	-8.91619
▁There	-8.91817
per	-8.92347
ido	-8.92468
▁long	-8.92689
acht	-8.92996
▁má	-8.93079
▁point	-8.93113
ite	-8.93117
▁Close	-8.93412
▁mo	-8.93432
mm	-8.93638
▁great	-8.93691
▁But	-8.93747
▁ik	-8.94005
ru	-8.94109
▁kunt	-8.94155
▁saor	-8.94224
ling	-8.94352
▁fho	-8.94448
▁speed	-8.94453
ness	-8.94663
▁maith	-8.94744
▁Member	-8.94902
▁small	-8.95005
▁Airteagal	-8.95049
▁pre	-8.95129
▁v	-8.95249
▁list	-8.95484
▁provide	-8.95555
▁could	-8.95581
▁contact	-8.95687
Y	-8.96253
▁does	-8.96439
▁offers	-8.96549
res	-8.96594
▁support	-8.97008
▁Go	-8.97085
ag	-8.97395
▁When	-8.97538
▁both	-8.97622
▁J	-8.97641
eren	-8.97644
▁Committee	-8.97816
▁tréimhse	-8.97849
▁21	-8.97889
▁tAire	-8.97965
cha	-8.98085
▁What	-8.98159
za	-8.98174
▁nuestro	-8.98413
▁hun	-8.98617
▁hand	-8.98646
▁todos	-8.98686
▁weer	-8.98733
▁come	-8.98765
j	-8.98895
ent	-8.98925
▁Cuardaigh	-8.99171
▁Union	-8.99205
▁tiene	-8.99238
▁much	-8.99275
▁Questions	-8.99339
idad	-8.9935
▁leanas	-8.99371
▁using	-8.99735
▁th	-8.99844
rá	-8.99906
Z	-8.99915
▁pero	-9.00026
cu	-9.0009
▁sí	-9.00145
▁rud	-9.00322
tu	-9.00347
▁mi	-9.00494
▁fo	-9.00574
▁fháil	-9.00607
▁St	-9.00734
▁Las	-9.00862
▁know	-9.01083
▁solo	-9.01113
ja	-9.01116
▁daoine	-9.01172
▁andere	-9.01513
▁back	-9.01612
ty	-9.01708
▁Clear	-9.01803
les	-9.01919
ven	-9.02004
▁gá	-9.02154
▁Dún	-9.02308
▁Regulation	-9.02323
▁paragraph	-9.02349
▁onze	-9.0236
tic	-9.02364
so	-9.02419
▁while	-9.02777
ren	-9.02867
▁design	-9.02985
▁Â	-9.0315
▁deimhnithe	-9.03215
áin	-9.0338
▁Mo	-9.03383
▁relation	-9.03617
▁Me	-9.03849
▁accord	-9.03868
ando	-9.03955
▁against	-9.04232
▁28	-9.04273
▁site	-9.04276
ka	-9.04347
▁apply	-9.04375
land	-9.04533
▁social	-9.04658
aigh	-9.04686
▁United	-9.04698
▁fue	-9.04735
▁cur	-9.04742
ige	-9.04768
▁referred	-9.04839
▁High	-9.04887
10	-9.05402
▁Man	-9.0548
▁How	-9.05512
om	-9.05653
▁home	-9.05732
▁linn	-9.05835
▁sna	-9.06057
▁At	-9.06073
áil	-9.06205
tra	-9.06217
▁purposes	-9.06479
▁idir	-9.06764
▁zo	-9.06798
sa	-9.06877
▁50	-9.07007
▁sea	-9.07061
▁sonraí	-9.07143
▁Parlaiminte	-9.07282
▁Where	-9.07289
▁children	-9.07597
▁persons	-9.07619
pa	-9.07769
▁(5)	-9.07882
▁show	-9.07913
▁Por	-9.07924
▁sub	-9.08026
▁Board	-9.08095
):	-9.0818
men	-9.084
▁bhaineann	-9.08592
ron	-9.08682
▁important	-9.08752
▁Cuntas	-9.08756
X	-9.08782
▁Glan	-9.08803
▁2012	-9.08807
mh	-9.0891
▁aisce	-9.08939
heid	-9.09041
ida	-9.09088
ía	-9.09222
▁access	-9.09252
▁house	-9.09303
vo	-9.0944
ant	-9.09485
▁mundo	-9.09605
▁subject	-9.09672
▁down	-9.09727
▁necessary	-9.09767
▁type	-9.09868
▁información	-9.09948
▁software	-9.09954
",	-9.10024
▁process	-9.10172
rna	-9.10348
▁Para	-9.10485
▁26	-9.10506
▁Es	-9.10659
0	-9.10779
▁cuando	-9.10795
▁Pro	-9.11484
ados	-9.11548
em	-9.11591
▁three	-9.11664
▁Un	-9.11743
▁etc	-9.11804
fidh	-9.11832
▁market	-9.11855
▁form	-9.11938
▁Een	-9.11985
mar	-9.12295
con	-9.12407
▁2013	-9.12565
▁personas	-9.12566
▁raibh	-9.12691
he	-9.12838
va	-9.12838
▁found	-9.12872
▁general	-9.13342
▁wat	-9.13351
▁price	-9.13352
▁años	-9.13383
▁development	-9.1355
▁Te	-9.13589
▁provided	-9.13743
▁pro	-9.1379
▁27	-9.13807
▁member	-9.13887
▁led	-9.14085
▁nu	-9.14268
▁color	-9.14341
▁2014	-9.14385
das	-9.14654
▁particular	-9.14684
▁Su	-9.14722
ha	-9.1475
▁lugar	-9.14817
▁below	-9.14855
▁100	-9.14883
▁parte	-9.14952
▁then	-9.14989
▁leat	-9.15001
▁nuair	-9.15088
The	-9.15155
▁post	-9.15268
▁jaar	-9.15427
▁view	-9.15506
▁hasta	-9.1561
▁cm	-9.1564
tie	-9.15674
▁Tuesday	-9.15697
▁roimh	-9.15719
ck	-9.15745
ier	-9.1592
▁report	-9.15965
▁Verified	-9.16061
▁onder	-9.16119
ted	-9.16156
▁stiúir	-9.16238
▁Esta	-9.1642
▁han	-9.1655
▁full	-9.16659
▁Op	-9.16676
▁X	-9.16749
▁bhfeidhm	-9.16764
▁zich	-9.16922
tor	-9.16979
ard	-9.17134
AN	-9.17228
▁effect	-9.17302
▁Ch	-9.17445
▁city	-9.17461
▁chéad	-9.17521
▁muy	-9.17578
tas	-9.17683
▁Ge	-9.17776
qui	-9.17807
▁video	-9.17835
J	-9.1787
▁dul	-9.18167
▁end	-9.18224
▁current	-9.18227
▁aige	-9.18374
▁ceann	-9.18378
▁gran	-9.18478
▁natural	-9.18483
▁léir	-9.18581
▁possible	-9.18614
ii	-9.18638
▁mé	-9.18785
▁law	-9.18842
▁af	-9.19132
ire	-9.19203
▁ár	-9.19205
▁HD	-9.19252
▁informatie	-9.19605
▁están	-9.19651
▁General	-9.19709
▁provisions	-9.19822
▁Part	-9.19832
▁country	-9.20318
▁give	-9.20353
▁Air	-9.20428
▁total	-9.20606
▁dtí	-9.20655
▁Free	-9.20833
▁result	-9.20888
ct	-9.20955
▁uno	-9.21106
▁Beidh	-9.21114
len	-9.21317
▁Deze	-9.21331
▁notice	-9.21367
▁last	-9.21401
▁31	-9.2149
ho	-9.21749
▁Ro	-9.21841
▁game	-9.21885
▁They	-9.21943
▁í	-9.22046
▁Rialachán	-9.22204
ip	-9.22289
▁games	-9.22624
▁2.	-9.22669
▁material	-9.22767
▁vida	-9.22832
▁forma	-9.22833
▁geen	-9.22893
▁top	-9.22969
ek	-9.22995
iendo	-9.23079
▁level	-9.231
age	-9.23151
▁men	-9.23447
ze	-9.23484
▁Dit	-9.23676
▁ex	-9.23799
▁Court	-9.23948
▁National	-9.23999
air	-9.24057
▁Di	-9.24058
far	-9.24262
▁gc	-9.24363
▁Lu	-9.24388
▁Lo	-9.24527
ais	-9.24685
▁International	-9.2473
▁national	-9.24803
50	-9.25086
ill	-9.25174
ble	-9.25178
iallaíonn	-9.25302
▁around	-9.2533
▁min	-9.25367
ak	-9.25597
du	-9.257
▁human	-9.25707
▁dó	-9.25709
▁Irish	-9.2574
▁Ha	-9.25839
▁City	-9.26057
▁Max	-9.2619
int	-9.26226
▁food	-9.2634
▁given	-9.26415
▁management	-9.2653
▁hacer	-9.26575
cht	-9.26761
ous	-9.26763
ij	-9.26773
ála	-9.26901
▁EU	-9.27055
▁white	-9.27132
▁hij	-9.27135
CE	-9.27261
▁Hotels	-9.27347
sche	-9.2736
▁tax	-9.27423
▁ordú	-9.27629
ile	-9.27725
▁Our	-9.27839
▁include	-9.27984
▁care	-9.28036
ER	-9.28232
▁otros	-9.28239
▁Dios	-9.28419
less	-9.28455
°	-9.28505
▁bh	-9.28537
▁financial	-9.28547
▁specified	-9.28741
▁cada	-9.28741
▁Ca	-9.28806
fe	-9.28953
▁another	-9.29101
ende	-9.29261
▁size	-9.29368
▁present	-9.29412
▁making	-9.29432
ot	-9.29796
▁required	-9.29888
▁Má	-9.29938
val	-9.29978
▁sh	-9.30006
▁cheann	-9.30047
.”	-9.30146
▁large	-9.30234
▁building	-9.30276
▁hay	-9.30328
▁2011	-9.30683
po	-9.30726
▁auto	-9.30737
▁1.	-9.30746
▁offer	-9.31148
▁fearr	-9.31169
▁Europe	-9.3117
▁contra	-9.31205
▁líne	-9.31282
▁request	-9.3145
▁members	-9.31465
end	-9.31675
▁non	-9.31724
▁durante	-9.31849
▁computer	-9.32087
▁still	-9.32359
aon	-9.32377
▁increase	-9.32456
out	-9.32581
▁low	-9.32636
▁off	-9.32672
▁maken	-9.32753
▁direct	-9.32797
eanna	-9.32832
▁tijd	-9.33066
ise	-9.33111
▁dáta	-9.33239
▁ya	-9.33392
▁relevant	-9.33578
▁location	-9.33606
▁rate	-9.3364
▁cibé	-9.33809
▁Windows	-9.33902
▁change	-9.34035
ian	-9.34097
▁group	-9.3411
▁less	-9.34127
AL	-9.34332
▁select	-9.3436
▁x	-9.34413
EC	-9.34468
line	-9.34494
▁red	-9.34529
▁uair	-9.34698
▁health	-9.34752
▁áirithe	-9.34815
uit	-9.34904
▁ábhar	-9.34978
▁Van	-9.35277
▁family	-9.35321
▁basis	-9.35328
▁Er	-9.35469
▁hEorpa	-9.35505
▁final	-9.35515
car	-9.35602
▁next	-9.35724
▁áit	-9.35754
▁II	-9.35841
▁freisin	-9.35944
ria	-9.36003
▁Als	-9.36023
▁sp	-9.36106
▁Barcelona	-9.36185
▁May	-9.36242
▁extra	-9.3633
ang	-9.36345
▁ionad	-9.36346
▁•	-9.36388
ith	-9.36465
11	-9.36506
and	-9.36525
ítear	-9.36555
▁facilities	-9.36607
▁féadfaidh	-9.36625
▁29	-9.36706
▁play	-9.3677
▁Weather	-9.36828
▁gratis	-9.36848
▁nog	-9.36898
▁experience	-9.3693
▁based	-9.36951
▁pe	-9.3709
▁vez	-9.37117
▁Voor	-9.37274
ath	-9.37297
▁second	-9.37351
▁st	-9.37368
▁ph	-9.37632
▁located	-9.37731
▁week	-9.37761
ut	-9.37806
▁stay	-9.37982
▁money	-9.38048
oc	-9.38065
▁via	-9.38091
▁Ga	-9.38187
▁usted	-9.38258
▁night	-9.3827
ide	-9.38308
▁amhlaidh	-9.38394
▁Or	-9.3845
ko	-9.38601
ate	-9.38944
▁Bar	-9.38965
▁bhliain	-9.39074
▁countries	-9.39074
ger	-9.39108
▁línea	-9.39113
+	-9.3922
▁así	-9.39232
▁Bo	-9.39252
che	-9.39257
▁hours	-9.39472
▁By	-9.39557
▁House	-9.39663
▁These	-9.39719
▁activities	-9.39756
▁cheart	-9.39784
▁goed	-9.3979
▁gebruik	-9.39799
▁interest	-9.39889
▁example	-9.39898
▁cualquier	-9.40055
▁thar	-9.40115
▁taken	-9.40238
▁say	-9.40336
▁value	-9.40368
ism	-9.40395
isc	-9.40415
▁hier	-9.40501
▁2009	-9.40509
▁Li	-9.40623
▁40	-9.40648
pi	-9.40685
▁international	-9.40746
gh	-9.40915
▁zoals	-9.40931
▁did	-9.41052
▁property	-9.41142
▁2010	-9.4123
▁Pre	-9.41304
▁sórt	-9.41308
▁purpose	-9.41322
▁Author	-9.41346
▁mbaineann	-9.41369
era	-9.41489
▁office	-9.41572
▁fé	-9.41577
▁dtagraítear	-9.41602
▁ensure	-9.41861
áirítear	-9.42073
ni	-9.42093
▁download	-9.42102
▁live	-9.42113
bi	-9.42146
ún	-9.42164
af	-9.42291
▁together	-9.42303
ex	-9.42303
ina	-9.42352
▁día	-9.42432
▁plan	-9.42519
▁third	-9.42569
ice	-9.42619
▁Aontais	-9.42774
▁mm	-9.42821
▁sale	-9.42869
▁cost	-9.42992
▁Internet	-9.43022
all	-9.43225
▁rights	-9.43239
▁having	-9.43245
ated	-9.43344
atie	-9.43467
▁moet	-9.43484
▁Google	-9.43497
ial	-9.43531
▁Can	-9.43543
▁line	-9.43546
▁rental	-9.43564
▁results	-9.43567
▁until	-9.43574
son	-9.43585
au	-9.43651
eg	-9.43652
▁*	-9.43709
▁become	-9.43716
▁paid	-9.43778
▁machine	-9.43807
▁Da	-9.43905
▁away	-9.44078
▁bathroom	-9.442
▁payment	-9.44214
▁ca	-9.44334
ker	-9.44569
▁cuenta	-9.44676
▁Máirt	-9.44681
▁trade	-9.44692
▁roinnt	-9.44778
▁feidhme	-9.44795
▁Met	-9.44958
▁neamh	-9.44981
▁page	-9.45056
▁feidhm	-9.45061
▁veel	-9.4519
▁term	-9.45319
▁Thursday	-9.45398
▁Service	-9.45443
ear	-9.45577
▁Ag	-9.45585
bu	-9.4568
hi	-9.45685
fa	-9.45803
faidh	-9.45805
ner	-9.45954
▁forecast	-9.46137
▁Este	-9.46143
tal	-9.46152
▁Social	-9.46155
éadfaidh	-9.46167
king	-9.46183
▁always	-9.46199
▁bliana	-9.46284
▁da	-9.4636
▁gas	-9.46361
▁better	-9.46372
▁University	-9.46615
▁Black	-9.4664
▁bhfo	-9.46641
▁pay	-9.4667
▁Your	-9.46678
▁k	-9.46779
▁Private	-9.4689
▁críocha	-9.46996
▁Product	-9.47111
▁ndáil	-9.47113
ros	-9.47114
lt	-9.47138
iv	-9.47189
▁Toilet	-9.47351
nos	-9.47375
▁One	-9.47427
min	-9.47434
▁start	-9.47569
▁old	-9.47637
▁iomlán	-9.47638
ana	-9.47806
▁media	-9.47927
▁months	-9.47932
▁Park	-9.47942
▁ago	-9.47989
▁Airport	-9.48102
▁appropriate	-9.48116
▁Cu	-9.48229
▁things	-9.48241
ras	-9.48262
▁side	-9.4839
▁check	-9.48396
▁language	-9.48468
▁certain	-9.48494
▁too	-9.48507
▁ra	-9.48541
of	-9.48793
▁Per	-9.48863
▁síos	-9.48945
▁va	-9.48952
▁due	-9.48982
▁love	-9.49023
▁Seanad	-9.49131
▁popular	-9.49159
▁questions	-9.49218
▁My	-9.49241
▁added	-9.49256
gar	-9.49301
▁Wednesday	-9.49344
aítear	-9.49378
los	-9.49419
▁production	-9.49434
▁$	-9.49509
IN	-9.49574
12	-9.49598
ró	-9.49661
dor	-9.49797
▁údarás	-9.49935
▁upon	-9.49937
▁3.	-9.49942
▁mír	-9.49982
mi	-9.50056
▁dos	-9.50069
▁research	-9.50183
▁today	-9.50319
▁among	-9.50369
▁trabajo	-9.50375
▁performance	-9.50393
▁Uimh	-9.50467
▁working	-9.50482
imh	-9.50496
▁visit	-9.50524
ef	-9.50537
▁bar	-9.50564
▁First	-9.50633
zo	-9.50648
▁Ard	-9.50711
▁grote	-9.50751
▁since	-9.50945
pro	-9.51058
▁After	-9.51148
▁THE	-9.51227
▁able	-9.51326
▁watch	-9.51348
▁put	-9.51373
▁biedt	-9.51378
Acht	-9.5142
od	-9.51453
inn	-9.51525
▁Ik	-9.51756
ero	-9.5177
▁look	-9.51867
▁budget	-9.51892
ec	-9.51918
ph	-9.51956
▁whether	-9.51956
▁return	-9.51967
▁course	-9.52091
13	-9.52281
▁zou	-9.52282
▁iomchuí	-9.5241
ín	-9.52421
laistigh	-9.52466
▁Ma	-9.52488
fi	-9.52497
▁mí	-9.5253
▁brand	-9.52542
▁state	-9.52602
▁todas	-9.52731
ante	-9.52737
▁nieuwe	-9.52938
La	-9.52992
sh	-9.53088
▁60	-9.53314
▁bith	-9.53413
▁Coimisiún	-9.53455
pen	-9.53647
▁foto	-9.53743
▁Februar	-9.5385
▁Eorpach	-9.53852
▁donde	-9.53975
▁bhun	-9.54057
▁legal	-9.54102
▁duit	-9.5415
▁World	-9.5453
▁apartment	-9.54752
▁private	-9.54772
▁datos	-9.54877
▁includes	-9.54925
▁anti	-9.54931
▁clear	-9.54943
▁reference	-9.55037
óidh	-9.55103
▁Bill	-9.55162
og	-9.55181
sta	-9.55214
▁features	-9.55383
▁range	-9.55534
▁fact	-9.5556
▁ofrece	-9.55574
▁protection	-9.5559
▁bhaint	-9.55615
▁Not	-9.55657
▁US	-9.55658
ud	-9.55676
▁Ireland	-9.55693
▁Ze	-9.55727
▁LED	-9.55753
▁rooms	-9.55759
▁far	-9.55769
▁marketing	-9.55769
▁plant	-9.55811
▁Data	-9.55836
▁treatment	-9.55865
▁child	-9.55959
ingen	-9.5604
▁Room	-9.56128
▁black	-9.56133
▁temperatuur	-9.56139
▁rates	-9.56157
aciones	-9.56232
▁again	-9.56314
ster	-9.56316
ran	-9.56346
▁short	-9.56356
▁Central	-9.56378
ium	-9.56401
▁few	-9.56479
▁She	-9.56585
las	-9.5667
▁Corporate	-9.5692
▁Next	-9.56937
▁Health	-9.56945
▁«	-9.56946
▁año	-9.56955
one	-9.5703
▁Sin	-9.57158
▁several	-9.57198
▁files	-9.57234
cer	-9.57331
ap	-9.5734
▁servicios	-9.5736
▁capital	-9.57372
▁heart	-9.57399
▁court	-9.5752
▁haar	-9.57675
▁hace	-9.57746
can	-9.57886
each	-9.57948
ü	-9.57964
▁Casino	-9.58014
▁tráth	-9.58057
▁school	-9.58152
▁Mu	-9.58205
▁íoc	-9.58242
▁keep	-9.58261
▁mismo	-9.58385
▁addition	-9.584
▁related	-9.58414
aíonn	-9.58443
19	-9.58463
▁Po	-9.58465
▁oil	-9.58591
ola	-9.58769
20	-9.58788
▁already	-9.58838
▁easy	-9.58839
▁offence	-9.58846
ces	-9.58969
▁beautiful	-9.59115
▁kaart	-9.59236
▁(6)	-9.59359
▁hard	-9.59386
▁might	-9.59393
▁steel	-9.59398
▁American	-9.59422
▁enjoy	-9.59476
▁abogados	-9.59488
iva	-9.59549
▁various	-9.5971
we	-9.59724
▁program	-9.59757
▁transfer	-9.59781
▁near	-9.59786
▁minutes	-9.59875
▁further	-9.59951
▁book	-9.59959
▁specific	-9.59988
▁base	-9.60042
▁modern	-9.60126
▁held	-9.60137
aire	-9.60241
ft	-9.60252
No	-9.60271
▁Dr	-9.60283
▁decision	-9.60428
▁gcomhréir	-9.60511
▁equipment	-9.60513
▁concerned	-9.60544
tin	-9.60564
gel	-9.60632
encia	-9.60633
▁individual	-9.608
ré	-9.60803
ki	-9.60847
▁dar	-9.60947
▁calidad	-9.61085
ful	-9.61245
▁Contact	-9.61317
▁Ta	-9.6133
▁table	-9.61493
cal	-9.61502
▁measures	-9.61567
▁address	-9.61573
▁cheap	-9.61584
▁Villa	-9.61785
▁original	-9.61945
▁agua	-9.62053
ische	-9.62058
way	-9.62121
oir	-9.62182
▁economic	-9.62249
▁From	-9.62281
▁rent	-9.62329
▁South	-9.62398
ff	-9.62422
▁Q	-9.62457
óir	-9.62537
▁perfect	-9.6259
▁fe	-9.62611
▁era	-9.6265
▁whole	-9.62661
▁Bank	-9.62662
ible	-9.62698
▁paper	-9.62722
30	-9.62736
▁díreach	-9.6279
▁known	-9.62832
▁35	-9.62841
gu	-9.62887
ez	-9.63051
▁York	-9.63078
▁láthair	-9.63081
▁expected	-9.63138
▁ni	-9.63151
▁either	-9.63221
▁nuestra	-9.63242
▁dis	-9.63271
▁create	-9.6336
▁después	-9.63365
▁women	-9.63365
ert	-9.63394
▁werd	-9.63438
ual	-9.63458
▁inter	-9.6353
nt	-9.63545
▁created	-9.63616
wel	-9.63631
▁chéile	-9.63654
▁Santa	-9.63769
ría	-9.63797
▁dhá	-9.63835
▁ard	-9.63886
ya	-9.63901
▁Group	-9.63965
▁security	-9.63981
van	-9.64055
▁lot	-9.64104
▁zij	-9.64347
▁ciudad	-9.6436
▁ellos	-9.6438
jes	-9.6449
▁called	-9.64494
▁Online	-9.64551
ador	-9.64573
▁kind	-9.64677
ring	-9.64782
▁Pe	-9.6483
▁However	-9.64831
▁document	-9.64843
▁manera	-9.64868
lin	-9.6493
▁lucht	-9.65008
▁fh	-9.65027
ino	-9.65032
▁risk	-9.65057
▁Services	-9.65084
fer	-9.65223
▁mhéid	-9.65265
▁France	-9.65286
▁past	-9.65286
▁sido	-9.65341
mail	-9.65397
▁beschikbaar	-9.654
▁Finance	-9.65417
▁airgeadais	-9.65419
▁beste	-9.65433
▁Of	-9.65441
▁alleen	-9.65445
onn	-9.65493
▁chuir	-9.65669
ure	-9.65747
▁cuid	-9.659
jo	-9.65912
▁mijn	-9.65944
▁Department	-9.66004
▁rá	-9.66126
▁suas	-9.6618
40	-9.6618
▁twee	-9.66251
▁works	-9.66456
▁él	-9.66568
_	-9.66581
▁aire	-9.66632
adas	-9.66686
chi	-9.6671
▁forálacha	-9.66738
ora	-9.66804
▁living	-9.669
▁weergeven	-9.66902
gún	-9.6699
▁needs	-9.67077
▁ideal	-9.67103
▁Ra	-9.67114
▁sistema	-9.67153
▁think	-9.67162
▁éagsúla	-9.67261
▁tanto	-9.67265
®	-9.67277
▁Public	-9.67379
ish	-9.67563
▁du	-9.67769
▁Netherlands	-9.67803
▁energy	-9.67803
ura	-9.67841
▁Education	-9.67841
▁team	-9.67966
▁terms	-9.68081
▁Bh	-9.68092
▁tras	-9.68102
▁Mi	-9.6811
▁cu	-9.6811
▁Más	-9.68118
▁Spain	-9.68178
▁warm	-9.68275
▁head	-9.68284
▁iarratas	-9.68339
cho	-9.68553
▁event	-9.68606
▁Tuilleadh	-9.68716
▁comh	-9.68815
▁debe	-9.68943
▁force	-9.69039
▁Mac	-9.69045
▁fógra	-9.69083
▁2008	-9.69096
▁l	-9.69259
▁test	-9.69317
▁companies	-9.69327
▁times	-9.69364
”.	-9.69507
▁ghlacadh	-9.69641
ub	-9.69651
▁teacht	-9.69676
▁Sea	-9.69684
▁rules	-9.69965
▁internet	-9.69995
▁Ko	-9.70178
ler	-9.7029
▁tan	-9.70325
▁im	-9.70364
▁sky	-9.70371
▁according	-9.70445
▁gebruikt	-9.70532
▁través	-9.70564
▁Je	-9.70567
▁verschillende	-9.70578
▁Agus	-9.70629
In	-9.70709
▁makes	-9.70727
▁mayor	-9.70747
▁age	-9.70796
ep	-9.70817
▁gComhairle	-9.70875
▁taking	-9.70882
▁chóir	-9.70904
▁drive	-9.70974
iste	-9.71031
▁review	-9.7105
▁travel	-9.71188
▁above	-9.71189
▁leor	-9.7121
▁Pi	-9.7124
▁45	-9.7135
▁meeting	-9.71488
▁Schedule	-9.71501
▁iarraidh	-9.71522
▁complete	-9.71652
▁Now	-9.71665
▁casa	-9.7168
▁Radio	-9.71796
▁sector	-9.71815
▁feadh	-9.71857
▁nuevo	-9.71894
▁pool	-9.71908
▁often	-9.71975
▁officer	-9.71978
▁click	-9.7205
▁training	-9.72108
▁single	-9.72165
ence	-9.7217
▁Sc	-9.72206
▁box	-9.72216
▁esto	-9.72232
▁transport	-9.72239
▁ten	-9.72297
▁choose	-9.72448
▁details	-9.72527
▁West	-9.7254
▁dh	-9.72581
▁March	-9.7261
▁center	-9.72633
▁Chun	-9.72652
let	-9.72728
▁»	-9.72753
▁board	-9.72772
▁estos	-9.72796
▁That	-9.72837
ley	-9.73095
01	-9.73108
▁credit	-9.73119
ries	-9.73152
▁mis	-9.73215
▁bhf	-9.73396
▁Post	-9.73675
lic	-9.73751
▁act	-9.73852
▁fén	-9.73902
▁policy	-9.74046
▁céanna	-9.74058
▁Ad	-9.74117
▁improve	-9.74126
▁uso	-9.7426
▁imeachta	-9.74333
▁DE	-9.74339
De	-9.74345
▁gheall	-9.74368
si	-9.744
▁leas	-9.74462
▁read	-9.74572
▁along	-9.74592
▁cinn	-9.74625
▁follow	-9.74788
▁Bu	-9.7488
▁kamer	-9.74953
▁había	-9.75018
▁provides	-9.7504
▁Argentina	-9.75076
▁dry	-9.75199
▁moment	-9.75217
17	-9.75268
▁badkamer	-9.75343
▁stad	-9.75349
15	-9.75422
▁Shower	-9.75475
mer	-9.75477
tro	-9.75491
▁motor	-9.75503
▁professional	-9.75511
IS	-9.75574
▁Am	-9.7563
▁left	-9.7563
▁charge	-9.7566
▁contract	-9.75671
▁tegen	-9.75675
▁requirements	-9.7569
gan	-9.75698
▁action	-9.75703
▁sch	-9.7579
cy	-9.75926
▁bus	-9.7594
▁really	-9.75945
▁Sceideal	-9.75997
amente	-9.76013
tos	-9.76031
ai	-9.76057
▁Office	-9.76076
imid	-9.76138
▁close	-9.76159
▁words	-9.76254
▁education	-9.76258
mon	-9.76284
▁binnen	-9.76328
▁productos	-9.76349
▁English	-9.76363
▁White	-9.76381
ito	-9.76439
▁key	-9.76452
▁areas	-9.76547
ber	-9.76656
ning	-9.76723
▁question	-9.7684
▁card	-9.76865
▁President	-9.76886
▁Jesus	-9.76988
▁Achta	-9.77028
▁function	-9.77042
%	-9.77091
▁Saint	-9.77092
▁aquí	-9.77097
▁logo	-9.77186
▁OF	-9.7721
▁Her	-9.77266
▁technology	-9.77319
▁Information	-9.77336
▁Ja	-9.77355
▁Lord	-9.77368
▁tussen	-9.77371
▁cable	-9.77394
▁prices	-9.77401
▁included	-9.77405
tel	-9.77557
▁eigen	-9.77591
EU	-9.776
▁eerste	-9.77612
▁tienen	-9.7767
▁standard	-9.77891
▁Ho	-9.77902
▁wij	-9.77907
▁bo	-9.77933
ista	-9.77952
▁ahora	-9.77992
▁carry	-9.78077
▁July	-9.78134
▁Tu	-9.78181
by	-9.78213
▁Stát	-9.78323
▁Other	-9.78338
▁archivo	-9.78528
▁operation	-9.78541
▁Water	-9.78548
cion	-9.78581
▁porque	-9.78605
▁Games	-9.78612
▁éifeacht	-9.78671
▁III	-9.78693
▁li	-9.78782
▁días	-9.78805
▁fin	-9.7881
▁mu	-9.78849
punt	-9.789
▁bien	-9.78904
▁Sh	-9.79041
ara	-9.79103
uw	-9.79151
▁rith	-9.79248
▁cuideachta	-9.79253
▁200	-9.79287
▁pa	-9.79364
▁huis	-9.79383
▁Book	-9.79398
▁haon	-9.79428
▁class	-9.79518
▁Over	-9.79579
▁never	-9.79733
▁bajo	-9.79763
▁Costa	-9.79784
▁Ri	-9.79799
▁¡	-9.79869
▁gh	-9.79906
port	-9.7991
▁music	-9.79915
rio	-9.79943
íodh	-9.80017
▁society	-9.80017
▁hoe	-9.80026
▁leo	-9.80035
▁Red	-9.8004
▁April	-9.80066
▁sc	-9.80118
▁CD	-9.80245
▁#	-9.80282
▁Jan	-9.80295
TM	-9.80299
ah	-9.80334
▁January	-9.8036
▁talamh	-9.80363
amos	-9.80383
▁Christ	-9.80385
▁share	-9.80396
▁soon	-9.80455
▁simple	-9.80529
▁least	-9.80545
▁mhí	-9.80587
▁r	-9.80723
▁designed	-9.80769
▁done	-9.80853
▁Nua	-9.80887
ió	-9.80907
iúil	-9.80957
▁sent	-9.80967
▁Gaeilge	-9.81048
▁Puerto	-9.81048
▁dtaobh	-9.81048
▁mbeadh	-9.81053
▁gemaakt	-9.81138
▁zien	-9.81246
▁issue	-9.81374
▁mura	-9.81444
▁construction	-9.81446
ita	-9.81554
▁additional	-9.81599
▁Ex	-9.81608
par	-9.81672
hu	-9.8173
▁October	-9.81741
▁winter	-9.81755
▁Street	-9.81797
▁Size	-9.81853
cl	-9.81964
▁ligt	-9.81986
▁nos	-9.81995
▁problem	-9.82
▁dlí	-9.82013
▁Local	-9.82103
▁dijo	-9.82108
▁obair	-9.82165
▁Estados	-9.82197
▁Th	-9.82236
cia	-9.82238
illa	-9.82335
ng	-9.8239
vel	-9.82397
aíocht	-9.82472
▁Number	-9.82472
pt	-9.82605
OS	-9.82623
uk	-9.82652
▁received	-9.82658
▁users	-9.82701
▁agreement	-9.82755
▁turn	-9.82772
▁Una	-9.82786
▁táirgí	-9.8279
▁little	-9.82793
▁position	-9.82879
24	-9.82922
ized	-9.82926
eacht	-9.83035
▁global	-9.83043
▁fi	-9.83068
gue	-9.83103
▁cad	-9.83107
▁Sp	-9.83113
▁common	-9.83147
▁history	-9.83158
▁staat	-9.83233
▁model	-9.8324
▁Europa	-9.83253
▁established	-9.83272
▁face	-9.83287
▁plaats	-9.83327
27	-9.83347
▁ti	-9.83349
▁enter	-9.8336
nte	-9.8341
▁comes	-9.83451
ios	-9.83497
▁PC	-9.83505
▁John	-9.83526
▁Ó	-9.83595
▁Iúil	-9.83609
▁meaning	-9.83648
ain	-9.83657
TA	-9.8367
99	-9.83685
25	-9.83788
▁ro	-9.83794
▁December	-9.8385
▁Power	-9.83902
▁stop	-9.83987
▁feel	-9.84015
▁Seo	-9.84027
▁similar	-9.84038
▁provid	-9.8406
for	-9.84106
ean	-9.84114
▁later	-9.84151
▁Pero	-9.84187
▁lu	-9.84193
▁chloig	-9.84206
▁Budget	-9.84207
▁young	-9.84251
▁moeten	-9.84258
▁seirbhísí	-9.84262
cháin	-9.84366
▁Fe	-9.84375
screen	-9.84391
▁reason	-9.84435
▁Director	-9.84495
▁Top	-9.84513
▁Authority	-9.84591
▁cookies	-9.84614
▁June	-9.84626
▁Dur	-9.8465
fh	-9.84702
▁36	-9.84705
▁receive	-9.84756
▁party	-9.84787
▁Amsterdam	-9.8493
ele	-9.84992
▁Ben	-9.85014
▁See	-9.85052
▁version	-9.851
▁Day	-9.85151
▁tipo	-9.85159
gi	-9.85162
▁Déardaoin	-9.85282
▁ejemplo	-9.85282
▁Business	-9.85282
▁technical	-9.85303
ding	-9.85322
▁Land	-9.85405
▁4.	-9.85417
▁menos	-9.85437
tv	-9.85452
ización	-9.8547
▁Read	-9.85545
▁parts	-9.85621
▁future	-9.85645
▁collection	-9.85656
▁scheme	-9.85658
▁Nu	-9.85666
▁India	-9.85676
▁Please	-9.85681
ast	-9.85697
▁uisce	-9.85718
▁wall	-9.85728
▁series	-9.85806
▁flat	-9.85853
▁Cuba	-9.85988
▁industry	-9.86005
▁Meer	-9.86025
▁factory	-9.86086
▁hecho	-9.86095
▁áireamh	-9.86129
AR	-9.86146
80	-9.86216
▁ailt	-9.86345
▁relating	-9.86372
▁rest	-9.86399
ord	-9.86465
▁Best	-9.86507
ás	-9.86537
▁dag	-9.86543
▁systems	-9.86625
▁w	-9.86634
▁fad	-9.86663
▁Cuir	-9.86664
▁staff	-9.86736
▁Chi	-9.86806
▁2006	-9.86869
bra	-9.86937
▁déanfar	-9.87135
▁antes	-9.87136
▁self	-9.87177
AS	-9.8721
▁weers	-9.87256
▁par	-9.8733
05	-9.87359
An	-9.8736
▁alta	-9.87364
▁roimhe	-9.87429
▁Salvador	-9.87468
▁Madrid	-9.87486
▁benefit	-9.87543
▁dt	-9.87624
nce	-9.87652
▁manufacturer	-9.87661
@	-9.87688
▁strong	-9.87698
▁government	-9.87724
▁network	-9.8778
ab	-9.87795
▁AN	-9.87811
▁airgead	-9.87823
▁mogelijk	-9.87823
▁Tags	-9.87884
▁blowing	-9.87899
ama	-9.87933
▁Cha	-9.87941
▁front	-9.87948
▁gr	-9.87949
▁continue	-9.88123
▁mb	-9.88163
▁karnar	-9.88207
▁Facebook	-9.88207
▁Friday	-9.88208
▁Chomhairle	-9.88225
▁bring	-9.8832
21	-9.884
▁werk	-9.88413
▁His	-9.88425
ities	-9.88431
▁whom	-9.88453
▁Acts	-9.88508
▁coinníollacha	-9.88581
ok	-9.88619
til	-9.88638
▁word	-9.88655
ik	-9.88657
▁matter	-9.88679
▁regulations	-9.8872
dra	-9.88817
▁entitled	-9.88959
achta	-9.88985
▁add	-9.88996
▁Ru	-9.89015
ong	-9.8903
▁Fund	-9.89057
▁os	-9.89058
”,	-9.89109
iz	-9.89155
▁space	-9.89158
▁momento	-9.89187
eo	-9.89209
▁2007	-9.89304
▁community	-9.89326
▁assessment	-9.89335
▁immediately	-9.8935
IT	-9.89373
▁thereof	-9.89377
tre	-9.89379
ris	-9.89393
ata	-9.89411
▁actual	-9.8942
▁estado	-9.89428
▁”	-9.89456
▁allow	-9.89496
▁meet	-9.89508
ail	-9.89526
▁cause	-9.89593
▁Airgeadais	-9.89704
▁appeal	-9.89705
▁description	-9.89719
ize	-9.8976
▁eolas	-9.89796
▁weight	-9.89798
▁licence	-9.89807
▁structure	-9.8986
▁link	-9.8988
▁mhír	-9.89886
▁otras	-9.89912
▁nature	-9.89937
▁Bord	-9.90061
▁otherwise	-9.90085
íocht	-9.90111
▁ceart	-9.90115
eofar	-9.90206
▁came	-9.90215
▁lawyers	-9.90217
▁five	-9.90231
▁meteo	-9.90264
▁luach	-9.90276
Airteagal	-9.90318
tri	-9.90333
▁film	-9.90412
▁buy	-9.90436
ales	-9.90452
▁seguridad	-9.90458
▁Development	-9.90461
▁authorities	-9.90461
▁blood	-9.90462
▁November	-9.90473
35	-9.9048
gr	-9.90493
▁appointed	-9.90527
▁study	-9.90554
▁Super	-9.90618
▁registered	-9.90674
eadh	-9.90685
fo	-9.90747
bel	-9.90765
▁ter	-9.90833
▁accommodation	-9.9084
▁September	-9.90851
▁income	-9.90893
▁empresa	-9.90893
pre	-9.90953
▁central	-9.91065
▁Tax	-9.91098
▁IN	-9.91139
▁Pharlaimint	-9.9122
▁carried	-9.91267
bare	-9.91358
▁servicio	-9.91367
▁cold	-9.9154
▁Comhairle	-9.91603
▁Tar	-9.91615
▁station	-9.91645
▁dagen	-9.91646
tes	-9.91738
);	-9.91742
▁stock	-9.91744
ófar	-9.91802
▁otro	-9.91846
▁North	-9.91936
▁Ballstáit	-9.91988
▁dóibh	-9.91994
▁Colombia	-9.92003
▁grant	-9.92011
▁why	-9.92016
▁Report	-9.92016
han	-9.92026
▁wereld	-9.92071
▁Web	-9.92109
rse	-9.9225
▁mucho	-9.92259
▁civil	-9.92329
▁safety	-9.92386
▁adult	-9.92489
▁qué	-9.92496
Q	-9.92567
▁caso	-9.92574
údarás	-9.92632
zen	-9.92643
▁otra	-9.92716
▁fear	-9.92719
aba	-9.92751
▁dhaoine	-9.92762
▁bhrí	-9.92763
az	-9.92789
▁zonder	-9.92802
RA	-9.92857
uur	-9.92899
bre	-9.92947
dy	-9.92984
uithe	-9.9299
▁Jo	-9.92997
16	-9.93007
▁Port	-9.93015
▁restaurant	-9.93092
ban	-9.93167
lia	-9.93173
▁wel	-9.93177
▁whose	-9.93211
ES	-9.9322
ization	-9.93246
▁lift	-9.93248
eacha	-9.93273
▁país	-9.93379
ally	-9.93423
▁imp	-9.93465
▁rialacha	-9.93546
del	-9.9355
▁Electric	-9.93569
most	-9.93573
ors	-9.93601
▁political	-9.93608
▁provision	-9.93644
▁centre	-9.93717
time	-9.93794
▁road	-9.93862
90	-9.939
▁posible	-9.93909
▁embargo	-9.93934
vis	-9.93935
▁náisiúnta	-9.93996
▁Wat	-9.9401
ano	-9.94019
▁bearta	-9.94052
▁director	-9.94101
▁metal	-9.94113
▁million	-9.94149
▁opinion	-9.9416
▁importante	-9.94169
▁dates	-9.94175
▁Products	-9.94213
óra	-9.94259
▁tríd	-9.94348
▁looking	-9.94392
▁problems	-9.94393
over	-9.94417
▁tres	-9.94481
▁fine	-9.945
ever	-9.94531
▁email	-9.9457
▁effects	-9.94631
▁Open	-9.94659
ny	-9.94669
▁Art	-9.94686
▁woman	-9.94723
▁nodig	-9.94734
▁four	-9.94756
bar	-9.94815
▁students	-9.9487
▁principal	-9.94924
▁algunos	-9.94945
▁rec	-9.95053
▁region	-9.95082
▁reach	-9.95083
▁category	-9.95119
▁Centre	-9.95144
▁manner	-9.95149
Re	-9.95174
▁Kamer	-9.95198
▁Sch	-9.95208
▁others	-9.95416
form	-9.95438
▁bu	-9.95439
▁ground	-9.9545
▁Previous	-9.95518
▁tell	-9.95538
▁Material	-9.95544
▁events	-9.95549
▁Eigen	-9.9555
▁Ni	-9.95585
▁prevent	-9.956
▁tener	-9.95606
▁tra	-9.9565
▁déanta	-9.9571
▁produce	-9.95749
▁sitio	-9.95769
stra	-9.95792
▁customer	-9.95839
▁super	-9.95881
▁Special	-9.95885
▁Du	-9.95889
▁double	-9.95918
Béarla	-9.95918
▁Government	-9.95944
▁Light	-9.95955
▁payable	-9.9596
▁safe	-9.96021
▁uur	-9.96036
▁war	-9.9607
▁países	-9.96089
iteit	-9.96101
▁será	-9.96106
▁bun	-9.96121
uc	-9.96126
▁multi	-9.96152
▁Gar	-9.96201
▁marca	-9.9623
▁estar	-9.96241
▁photo	-9.96262
▁impact	-9.96284
▁punto	-9.96293
▁gebruiken	-9.96504
▁directly	-9.96505
▁snelheid	-9.9658
▁sure	-9.96603
▁videos	-9.96606
rú	-9.96626
▁AND	-9.96628
▁exchange	-9.96724
▁knowledge	-9.96736
▁digital	-9.96777
▁déanfaidh	-9.96782
▁text	-9.96788
RO	-9.96802
▁gaan	-9.96802
▁War	-9.96818
▁agat	-9.96837
▁protect	-9.96919
▁Ce	-9.9697
úil	-9.96993
▁haci	-9.97009
▁32	-9.9706
▁London	-9.97128
▁libre	-9.97134
▁August	-9.97148
▁dew	-9.97289
▁personen	-9.97312
▁code	-9.9737
▁garden	-9.97426
▁ta	-9.97432
▁Work	-9.97444
▁80	-9.97475
mas	-9.97518
mp	-9.97521
▁ráta	-9.9759
▁deireadh	-9.97617
shan	-9.97634
▁amended	-9.97662
our	-9.97748
▁regard	-9.97754
▁500	-9.97776
14	-9.97805
▁Start	-9.97825
▁Ka	-9.97849
▁nueva	-9.97874
04	-9.97946
▁omstandigheden	-9.98012
▁Fo	-9.98096
ssen	-9.98177
▁Design	-9.98191
▁Some	-9.98193
ating	-9.98237
▁Om	-9.98292
▁primera	-9.9838
▁costs	-9.98399
west	-9.98438
▁require	-9.98533
▁skin	-9.9854
ju	-9.98554
▁leven	-9.98572
▁please	-9.98573
ismo	-9.98629
▁Márta	-9.98764
▁Android	-9.98782
▁aantal	-9.98855
fhéadfa	-9.98948
▁sound	-9.99042
▁Inter	-9.99139
▁Rate	-9.9914
▁Fi	-9.99171
▁supply	-9.99177
We	-9.99181
▁fit	-9.99232
▁idea	-9.99252
wa	-9.99312
▁connect	-9.9934
aíochta	-9.99358
▁Unidos	-9.99364
▁Israel	-9.99439
▁estate	-9.99515
▁death	-9.99531
▁mind	-9.99534
▁shin	-9.99577
▁something	-9.99596
▁[...]	-9.9961
ieron	-9.99658
▁orthu	-9.99662
▁Christian	-9.9969
▁walk	-9.99757
ula	-9.99789
▁líon	-9.99802
aid	-9.99838
▁Paul	-9.9985
▁Pa	-9.99911
éad	-9.99925
▁style	-9.99942
red	-9.99982
▁anseo	-10.0004
▁Zo	-10.0004
▁Center	-10.0006
▁2000	-10.0006
▁cannot	-10.0007
▁cómo	-10.0016
▁Box	-10.0019
▁Flat	-10.002
▁barr	-10.0023
elijk	-10.0023
▁user	-10.0025
▁field	-10.0026
▁Ab	-10.0027
▁reduce	-10.0032
(1)	-10.0033
▁environment	-10.0042
▁Museum	-10.0043
tr	-10.0043
▁Bre	-10.0044
▁precipitation	-10.0045
led	-10.0046
▁bank	-10.0047
▁pé	-10.0048
▁unique	-10.0052
▁pension	-10.0053
▁Don	-10.006
▁Euro	-10.0064
AE	-10.0064
▁zeer	-10.0065
▁Maar	-10.0066
▁purchase	-10.0066
ente	-10.0068
▁conditioning	-10.0071
▁Bhí	-10.0071
▁proyecto	-10.0081
▁Video	-10.0082
ET	-10.0084
▁iníoctha	-10.0085
▁humidity	-10.0085
▁itself	-10.0086
▁band	-10.0089
▁Section	-10.0093
▁mensen	-10.0093
▁cuí	-10.01
des	-10.0104
▁born	-10.0107
light	-10.0109
▁Nederland	-10.0121
▁procedure	-10.0125
▁Mexico	-10.0127
▁Verenigd	-10.0127
irt	-10.0129
▁Vi	-10.0129
▁suitable	-10.0129
▁tal	-10.013
ps	-10.0144
eoidh	-10.0149
▁historia	-10.015
amh	-10.0151
cur	-10.0153
▁Grand	-10.0162
▁device	-10.0167
▁pursuan	-10.0169
▁=	-10.0186
▁official	-10.0187
▁customers	-10.0187
▁kitchen	-10.019
▁net	-10.0191
elijke	-10.0194
▁Use	-10.0196
▁register	-10.0198
06	-10.0201
▁reviews	-10.0207
▁(1	-10.0209
▁district	-10.0212
▁fully	-10.0212
▁Directive	-10.0213
▁bit	-10.0213
▁certificate	-10.0213
▁exact	-10.0214
▁materials	-10.0218
▁ainm	-10.0219
▁fund	-10.0224
▁Jul	-10.0226
eerd	-10.0227
▁Ach	-10.0229
▁Plan	-10.023
▁cuir	-10.0232
▁Wi	-10.0233
▁meest	-10.024
ciÃ	-10.0249
úin	-10.025
mhail	-10.0251
▁Written	-10.0255
▁applies	-10.0255
▁cual	-10.0259
▁prijs	-10.0266
▁appartement	-10.027
▁town	-10.0287
▁Ci	-10.029
▁hombre	-10.0297
ort	-10.0297
▁condiciones	-10.0299
▁sex	-10.0302
SE	-10.0302
▁één	-10.0303
Á	-10.0305
60	-10.031
▁micro	-10.0311
▁eso	-10.0316
bal	-10.0322
▁floors	-10.0334
▁trans	-10.0336
▁excellent	-10.0341
▁Company	-10.0341
▁tSín	-10.0341
▁School	-10.0341
▁desarrollo	-10.0342
▁Apartment	-10.0344
sch	-10.035
▁bliain	-10.0352
▁diferentes	-10.0353
ue	-10.036
▁exercise	-10.0362
,"	-10.0363
▁mh	-10.0365
▁Hoe	-10.0366
▁wide	-10.037
95	-10.0373
ini	-10.0375
mis	-10.0378
ets	-10.0378
kken	-10.0379
▁33	-10.0381
▁park	-10.0381
éil	-10.0381
▁Céadaoin	-10.0384
▁gréasáin	-10.0384
▁Sunday	-10.0384
▁Republic	-10.0384
▁Italy	-10.0385
▁juego	-10.0386
▁vi	-10.0387
nó	-10.0393
▁Allah	-10.0398
▁Station	-10.0401
▁functions	-10.0405
▁once	-10.0407
▁inform	-10.0418
▁siempre	-10.0428
▁Channels	-10.0429
▁vehicle	-10.043
▁podría	-10.0433
▁2001	-10.0442
▁implement	-10.0448
berg	-10.0449
▁Weer	-10.045
▁fat	-10.0451
och	-10.0453
▁AE	-10.0454
▁Hij	-10.0455
ji	-10.0464
▁sum	-10.0465
pl	-10.047
▁Area	-10.0471
▁dhéanann	-10.0471
▁Stáit	-10.0472
▁unit	-10.0472
▁Download	-10.0473
▁writing	-10.0474
▁built	-10.0475
▁connection	-10.0477
▁vol	-10.0479
ña	-10.0483
éar	-10.0484
eert	-10.0504
stro	-10.0508
sis	-10.051
▁ce	-10.0512
▁Research	-10.0515
▁season	-10.0518
03	-10.0524
kt	-10.0525
▁dedicated	-10.0528
▁Cable	-10.0532
ator	-10.0538
CA	-10.0539
▁Beach	-10.0542
lá	-10.0543
▁Anti	-10.0543
▁téarma	-10.0545
mbo	-10.0547
ocht	-10.0549
▁train	-10.0549
▁muchos	-10.0556
▁Saturday	-10.0559
▁true	-10.0559
▁growth	-10.0563
▁Cuando	-10.0565
▁floor	-10.0566
▁Ne	-10.0566
▁System	-10.0567
▁programa	-10.0572
eachta	-10.0573
▁Paris	-10.0574
▁article	-10.0574
▁tool	-10.0578
▁Son	-10.0589
ille	-10.0596
cor	-10.0598
▁call	-10.0599
▁Honduras	-10.0603
▁nosotros	-10.0603
▁responsible	-10.0603
▁Prijs	-10.0603
▁Management	-10.0603
▁pressure	-10.0604
▁programme	-10.0604
▁áitiúil	-10.0605
▁También	-10.0605
▁adopt	-10.0607
▁bhíonn	-10.0609
▁lú	-10.0612
▁airport	-10.0612
▁practice	-10.0613
▁instrument	-10.0614
eur	-10.062
▁gC	-10.0622
qu	-10.0627
▁nivel	-10.0632
▁Play	-10.0635
▁ansin	-10.0639
▁hu	-10.0644
▁registration	-10.0648
▁Men	-10.0648
(2)	-10.065
▁Tri	-10.065
ING	-10.0651
▁com	-10.0651
eer	-10.0661
▁(7)	-10.0669
bit	-10.0671
▁Hu	-10.0681
ario	-10.0685
26	-10.0686
RE	-10.0689
▁Description	-10.0692
▁surface	-10.0692
▁Find	-10.0693
▁toda	-10.0696
ville	-10.0704
▁tijden	-10.0704
▁stand	-10.0705
▁America	-10.0707
▁camera	-10.0709
▁ju	-10.0713
▁condition	-10.0714
▁sport	-10.0722
▁going	-10.0723
IC	-10.0729
▁flights	-10.0733
▁90	-10.0734
▁easily	-10.0737
▁thousand	-10.0737
▁Cheap	-10.0738
▁ndéanfar	-10.0741
side	-10.0746
▁message	-10.0747
32	-10.0747
▁ski	-10.0748
▁send	-10.075
▁Machine	-10.075
▁beach	-10.0754
▁Ke	-10.0762
rie	-10.0762
▁options	-10.0767
▁yet	-10.0771
cción	-10.0772
▁Gra	-10.078
▁Principal	-10.0782
▁hÉireann	-10.0782
▁habitaciones	-10.0782
▁kleine	-10.0784
▁holiday	-10.0792
▁method	-10.0794
ui	-10.0804
▁Check	-10.0805
▁persona	-10.0808
▁effective	-10.082
▁manufacturers	-10.082
ins	-10.0825
▁Fuaimniú	-10.0827
▁south	-10.083
08	-10.0832
▁Germany	-10.0838
▁kwaliteit	-10.0839
ye	-10.0848
ves	-10.0853
▁producten	-10.0858
70	-10.0878
▁70	-10.0879
-10	-10.0879
▁IP	-10.0886
▁uile	-10.0887
▁understand	-10.0892
▁komen	-10.0892
▁leasú	-10.0894
istas	-10.0895
▁IV	-10.0897
▁phone	-10.0898
▁Com	-10.0902
▁Show	-10.0903
▁Cor	-10.0912
▁places	-10.0912
▁app	-10.0914
▁mientras	-10.0919
▁resolution	-10.092
▁Church	-10.092
▁capacity	-10.0924
▁Garden	-10.0927
▁derechos	-10.093
▁cases	-10.0931
tí	-10.0933
▁vanaf	-10.0933
▁encuentra	-10.0935
ov	-10.0938
íoc	-10.0939
lan	-10.0943
65	-10.0953
▁salud	-10.0961
▁Ecuador	-10.0964
arse	-10.0966
▁lead	-10.0974
▁centro	-10.0981
▁niños	-10.0989
▁Add	-10.0996
▁Select	-10.0997
▁unless	-10.0997
▁heel	-10.1002
▁normal	-10.1007
▁breeze	-10.101
▁maximum	-10.1011
EL	-10.1011
▁Type	-10.1012
▁especially	-10.1021
aan	-10.1021
unt	-10.1022
▁Niet	-10.1025
▁owner	-10.1025
mu	-10.1025
▁encontrar	-10.1029
▁statement	-10.1029
su	-10.1029
▁believe	-10.1032
▁Pu	-10.1032
▁favor	-10.1033
▁Bi	-10.1036
ntes	-10.1036
lar	-10.1037
cle	-10.1039
▁Any	-10.1048
ieve	-10.1048
cri	-10.105
▁Prophet	-10.1057
▁sometimes	-10.1057
▁obtener	-10.1059
▁mercado	-10.106
▁oiriúnach	-10.1063
▁%	-10.1064
▁bio	-10.1064
▁cart	-10.1069
▁ven	-10.1069
▁Bra	-10.1074
▁fiú	-10.1075
av	-10.1076
ici	-10.1077
sco	-10.1095
▁image	-10.1097
English	-10.1098
yl	-10.1099
▁reading	-10.11
▁Eorpaigh	-10.1103
▁críche	-10.1103
▁extension	-10.1103
▁deemed	-10.1104
tje	-10.1105
▁Gu	-10.1106
rit	-10.1109
▁terug	-10.111
▁100%	-10.111
AC	-10.1119
▁fall	-10.1122
▁medio	-10.1123
eas	-10.1126
sti	-10.113
▁zoek	-10.1137
▁Ven	-10.1137
ship	-10.1138
vol	-10.1142
ture	-10.1143
▁speisialta	-10.115
▁variety	-10.115
▁rialacháin	-10.115
▁plastic	-10.1154
▁prescribed	-10.1156
adores	-10.1156
▁Then	-10.116
▁Tra	-10.1162
▁cre	-10.1164
▁bedrijf	-10.1169
uch	-10.1169
▁goods	-10.117
▁ri	-10.118
▁(19	-10.1182
▁limit	-10.1184
▁34	-10.1188
baar	-10.1189
use	-10.1194
▁major	-10.1195
▁move	-10.1196
18	-10.1197
▁zullen	-10.1197
▁proceedings	-10.1197
▁deimhniú	-10.1199
▁producto	-10.1206
▁Real	-10.1212
▁info	-10.1213
gra	-10.1213
▁plants	-10.1216
▁Wij	-10.1222
fu	-10.1243
▁County	-10.1244
:—	-10.1244
▁fish	-10.1245
▁300	-10.125
▁employment	-10.125
▁fun	-10.1255
▁developed	-10.1257
▁issues	-10.1258
IL	-10.1259
▁bi	-10.1261
ung	-10.1262
▁thing	-10.1266
▁Green	-10.1267
▁Como	-10.127
47	-10.1271
rac	-10.1274
▁types	-10.129
▁interior	-10.1292
▁Monday	-10.1292
und	-10.1293
mat	-10.1294
▁Control	-10.1295
▁mian	-10.1297
▁poco	-10.1298
▁Auto	-10.1309
▁towards	-10.1309
▁Ph	-10.1313
nes	-10.1315
▁ID	-10.1324
cas	-10.1328
▁sal	-10.1337
▁Agency	-10.1342
▁minuten	-10.135
▁Project	-10.1363
▁área	-10.1364
lla	-10.1368
óirí	-10.1373
▁art	-10.1379
iente	-10.1379
▁culture	-10.1386
:???	-10.1387
▁Pronunciation	-10.1387
▁medical	-10.1387
▁half	-10.1388
▁competent	-10.1391
lann	-10.1392
▁everything	-10.1394
ivo	-10.14
▁athrú	-10.1401
▁debate	-10.1405
▁higher	-10.141
bij	-10.1417
▁pass	-10.1428
▁ask	-10.1428
▁morning	-10.1435
har	-10.1436
▁published	-10.1441
▁Color	-10.1445
LE	-10.1446
nna	-10.1462
▁nombre	-10.1468
▁took	-10.1471
▁proceso	-10.1472
rd	-10.1479
▁ci	-10.148
▁Watch	-10.1481
▁estas	-10.1482
▁Women	-10.1484
▁consent	-10.1484
▁learn	-10.1485
sk	-10.1486
TE	-10.1487
▁applications	-10.1488
▁friends	-10.1491
▁2004	-10.1492
▁Hot	-10.1496
▁doen	-10.1501
▁across	-10.1504
▁Sha	-10.1517
tica	-10.1518
AT	-10.1521
▁NA	-10.1529
▁crisis	-10.1532
▁blue	-10.1536
▁Cal	-10.1544
▁tAcht	-10.1545
22	-10.1549
▁lighting	-10.1556
▁cross	-10.1558
▁cap	-10.1558
▁ratio	-10.1574
▁resources	-10.1576
▁comfort	-10.1578
met	-10.1579
▁Martin	-10.1579
▁brought	-10.1581
▁comfortable	-10.1583
▁record	-10.1588
rk	-10.1589
▁listed	-10.1594
▁mentioned	-10.1597
meter	-10.1598
óg	-10.1598
▁TO	-10.1601
▁zelf	-10.1602
▁remove	-10.1608
▁permit	-10.1611
▁hot	-10.1612
▁allows	-10.1618
▁poder	-10.1619
dat	-10.1629
▁extreme	-10.163
▁David	-10.163
▁relación	-10.1631
▁ábhartha	-10.1633
▁Heating	-10.1636
▁panel	-10.1639
▁annual	-10.1642
amiento	-10.1648
▁mapa	-10.1649
▁ever	-10.1651
▁fire	-10.1658
▁proposal	-10.166
▁movement	-10.1662
ella	-10.1665
▁Mh	-10.1669
▁changes	-10.1677
▁fíor	-10.1679
voorspelling	-10.1679
▁acuerdo	-10.1679
▁longer	-10.1679
▁Kingdom	-10.1679
▁rialú	-10.168
ering	-10.1691
▁fast	-10.1691
ability	-10.17
▁month	-10.1707
▁Order	-10.1714
▁ré	-10.1714
.000	-10.172
xi	-10.1723
▁complex	-10.1727
▁Hairdryer	-10.1728
▁déanamh	-10.1729
▁maakt	-10.1729
rán	-10.173
▁bhonn	-10.173
▁duty	-10.1731
▁problemas	-10.1732
▁chás	-10.1733
log	-10.1733
▁Hoteles	-10.1734
▁lower	-10.1738
▁cerca	-10.1745
▁volume	-10.1749
▁Maria	-10.1752
aria	-10.1753
▁mon	-10.1756
▁groups	-10.176
inne	-10.1761
▁página	-10.1761
éir	-10.1764
aal	-10.1767
▁setting	-10.1771
▁cuerpo	-10.1778
▁Además	-10.1778
▁Convention	-10.1778
▁tratamiento	-10.1779
▁Safety	-10.1779
▁parties	-10.1787
▁hoy	-10.1789
▁begin	-10.1792
▁2005	-10.1795
artha	-10.1806
▁Comh	-10.1808
▁primer	-10.1809
▁acerca	-10.181
▁tools	-10.1814
▁valor	-10.1815
ties	-10.1818
▁juegos	-10.1826
▁número	-10.1828
▁mobile	-10.1828
▁gcéad	-10.1829
▁baby	-10.183
press	-10.1831
ío	-10.1831
tura	-10.1831
▁outside	-10.1833
house	-10.1833
ief	-10.1836
▁big	-10.1839
▁...	-10.1841
▁spot	-10.1846
▁hearing	-10.185
▁Faoi	-10.185
▁says	-10.1852
ix	-10.1869
▁industrial	-10.1875
▁samen	-10.1877
▁Fómhair	-10.1878
▁Min	-10.1881
cio	-10.1891
sion	-10.1896
ions	-10.1899
▁WC	-10.1904
▁granted	-10.1906
▁Road	-10.1914
▁chuideachta	-10.1916
▁deliver	-10.1917
▁Let	-10.1918
MA	-10.1926
▁mba	-10.1929
▁evidence	-10.1929
▁temperatura	-10.1929
▁French	-10.1929
▁equipped	-10.1929
▁ghabhann	-10.1929
▁Justice	-10.193
▁Casa	-10.1953
▁situation	-10.1967
▁gnó	-10.1968
ato	-10.1968
▁chuige	-10.1975
▁dhiaidh	-10.198
▁premises	-10.198
▁sholáthar	-10.198
US	-10.198
íochta	-10.198
▁cut	-10.1981
▁assistance	-10.1981
▁commercial	-10.1983
▁pictures	-10.1986
▁Bad	-10.1993
▁Dan	-10.1993
▁gaat	-10.1994
▁existing	-10.1998
▁Law	-10.1998
▁Bij	-10.2
▁Sub	-10.2001
▁camping	-10.2007
▁Name	-10.2008
▁sites	-10.201
▁ma	-10.2012
▁claim	-10.2015
▁establish	-10.2015
▁5.	-10.2019
▁fruit	-10.202
▁beginning	-10.2031
por	-10.204
▁wa	-10.204
fear	-10.2044
▁screen	-10.2054
▁let	-10.2054
▁seachas	-10.2055
▁represent	-10.2057
▁run	-10.2067
▁save	-10.2072
▁laid	-10.2082
▁Technology	-10.2082
▁leagan	-10.2082
▁audio	-10.2083
▁cánach	-10.2085
▁pas	-10.2094
▁38	-10.2095
lú	-10.2097
▁exceeding	-10.21
▁bia	-10.2101
CH	-10.2114
zi	-10.2125
▁Porn	-10.2126
▁shows	-10.2129
pp	-10.2131
▁export	-10.2132
31	-10.2133
▁diseño	-10.2134
▁hospital	-10.2134
▁Towels	-10.2134
▁largo	-10.2134
▁however	-10.2136
▁mayoría	-10.2136
▁try	-10.2141
▁concerning	-10.2143
isch	-10.2144
▁hem	-10.2149
iii	-10.2154
▁choice	-10.2156
ID	-10.2157
▁2003	-10.2158
▁clean	-10.2158
tiva	-10.2164
▁Col	-10.2171
▁ve	-10.2178
23	-10.2178
miento	-10.2178
LA	-10.218
▁CO	-10.2182
▁bhfianaise	-10.2185
▁daily	-10.2186
▁Protection	-10.2186
▁suíomh	-10.2189
▁Every	-10.2194
▁oibre	-10.2197
2,	-10.2199
▁mode	-10.22
▁Alle	-10.22
ou	-10.2204
▁dí	-10.222
▁build	-10.222
▁Aon	-10.2221
▁algo	-10.2225
▁verwacht	-10.2227
▁solution	-10.2231
q	-10.2235
▁dúinn	-10.2238
▁anything	-10.2238
▁bhráid	-10.2238
▁active	-10.224
▁mujeres	-10.2251
▁Mor	-10.2257
▁measc	-10.226
▁Buy	-10.2264
ug	-10.2273
▁store	-10.2273
▁affect	-10.2274
▁App	-10.2275
▁zona	-10.2276
onder	-10.228
board	-10.2284
▁Hospital	-10.229
▁applicable	-10.229
▁maintenance	-10.229
▁último	-10.229
▁viento	-10.229
â	-10.229
▁toiletries	-10.229
▁Esto	-10.2295
▁sign	-10.2297
▁leibhéal	-10.2299
▁kinderen	-10.23
▁contain	-10.2307
nza	-10.2307
lie	-10.2311
▁mini	-10.2311
Ma	-10.2311
▁Foto	-10.2314
ow	-10.2314
▁dus	-10.2318
▁Long	-10.2323
idos	-10.2327
▁issued	-10.2328
▁Transport	-10.2331
▁cluichí	-10.2342
▁iPhone	-10.2342
▁entry	-10.2343
▁fhios	-10.2343
▁Roinn	-10.2346
▁Bath	-10.2348
▁Juan	-10.2353
▁glass	-10.2355
▁recent	-10.2355
ology	-10.2356
▁green	-10.2357
▁Cur	-10.236
▁adopted	-10.2365
rach	-10.2366
rij	-10.2369
▁takes	-10.2373
aois	-10.2381
▁processing	-10.2384
▁format	-10.2386
▁mal	-10.2387
▁benefits	-10.2387
▁gegevens	-10.2387
eerde	-10.2387
▁gcuid	-10.2388
▁investment	-10.2392
▁Mon	-10.2393
lis	-10.2393
▁Dublin	-10.2395
▁velocidad	-10.2395
▁activity	-10.2396
▁cocina	-10.2396
▁equipo	-10.2396
▁rinneadh	-10.2397
▁España	-10.2398
▁ndia	-10.2403
▁applied	-10.241
▁fás	-10.2413
▁ball	-10.2415
▁pearsanta	-10.2417
TS	-10.2427
▁permite	-10.243
▁Mont	-10.2432
cm	-10.2434
IE	-10.2436
▁Here	-10.2442
▁disease	-10.2446
▁Vo	-10.2447
▁themselves	-10.2449
▁wanneer	-10.2449
▁cosúil	-10.2449
*	-10.2449
▁ACT	-10.245
▁DO	-10.245
▁implementation	-10.2451
▁Human	-10.2457
tive	-10.2459
▁Desk	-10.2462
▁Chile	-10.2462
éachaint	-10.2463
▁photos	-10.2466
▁Hand	-10.2476
▁allowed	-10.2477
antes	-10.2481
Fi	-10.2481
vers	-10.2483
▁ella	-10.2487
▁ayuda	-10.2489
ië	-10.2494
▁characteristics	-10.25
▁supplement	-10.25
▁grupo	-10.2501
▁Affairs	-10.2502
▁Community	-10.2502
▁dhéanfaidh	-10.2503
▁Chéad	-10.2503
▁planning	-10.2504
▁volgende	-10.2504
▁meteorologi	-10.2505
ev	-10.2515
▁ko	-10.2517
▁considered	-10.252
▁documents	-10.2524
▁fud	-10.2526
▁grandes	-10.2528
▁role	-10.2528
ON	-10.2531
tur	-10.2531
ative	-10.2533
▁focus	-10.2538
eel	-10.2538
ular	-10.254
ification	-10.2542
lip	-10.2544
▁ais	-10.2547
▁mas	-10.2551
▁except	-10.2554
▁Scheme	-10.2556
▁categoría	-10.2556
▁Single	-10.2557
▁weg	-10.2558
▁cuireadh	-10.2559
▁items	-10.2559
▁copy	-10.256
▁step	-10.2561
▁scéim	-10.2561
▁mee	-10.2562
▁waai	-10.2562
ico	-10.2564
▁precios	-10.2566
▁Km	-10.2575
▁Blue	-10.2578
▁gives	-10.2578
▁wilt	-10.2583
▁entire	-10.2601
ical	-10.2603
▁pr	-10.2606
▁comhlacht	-10.2609
▁háirithe	-10.261
▁cover	-10.261
▁summer	-10.2611
▁wil	-10.2618
▁gente	-10.2624
ordú	-10.2633
▁Gh	-10.2633
▁radio	-10.2634
▁route	-10.2638
▁separate	-10.2642
schap	-10.2643
áis	-10.2645
even	-10.2645
ona	-10.2646
dad	-10.2649
auw	-10.2651
OR	-10.2652
▁tagairt	-10.2653
art	-10.2657
anta	-10.2657
▁wish	-10.2658
▁Security	-10.2664
▁trust	-10.2665
▁Children	-10.2665
▁gift	-10.2667
–	-10.2667
aron	-10.2668
▁port	-10.2669
▁north	-10.267
▁decir	-10.2672
▁dochar	-10.2676
▁vinden	-10.2678
▁pagina	-10.2679
▁Commissioners	-10.2687
▁có	-10.2688
▁lista	-10.2696
▁determine	-10.2697
▁Get	-10.2704
ä	-10.2716
▁láithreán	-10.2719
▁snow	-10.2719
▁potential	-10.2719
▁Apple	-10.2727
▁cultural	-10.2729
ette	-10.2731
▁dentro	-10.2732
gas	-10.2734
ell	-10.2737
▁consider	-10.2737
▁Ti	-10.2741
▁Camping	-10.2743
▁conduct	-10.2744
▁Cre	-10.2747
▁gurb	-10.2749
▁guarantee	-10.2752
▁mat	-10.2753
IA	-10.2757
▁cosas	-10.2761
▁Travel	-10.2774
▁giving	-10.2774
▁installation	-10.2777
▁devices	-10.2778
▁1999	-10.2779
▁fásta	-10.278
▁flight	-10.2782
gha	-10.2784
emos	-10.2785
▁partner	-10.2791
▁shape	-10.2792
door	-10.2804
▁Card	-10.2805
É	-10.2814
▁gold	-10.2815
▁break	-10.2817
▁£	-10.2818
▁vorm	-10.2822
▁serie	-10.2827
eireadh	-10.2829
▁Síochána	-10.2829
▁blanco	-10.2829
▁opportunity	-10.2829
▁agree	-10.283
▁chinneadh	-10.2832
▁fós	-10.2834
▁muid	-10.2836
Show	-10.284
▁misma	-10.2841
▁wine	-10.286
▁latest	-10.2862
ging	-10.2863
▁kamers	-10.2864
SS	-10.2866
▁meter	-10.2867
▁Bay	-10.2878
▁Aontaithe	-10.2885
▁tierra	-10.2885
▁Second	-10.2885
zhong	-10.2885
▁plandaí	-10.2886
▁accessible	-10.2887
▁Steel	-10.2889
▁problema	-10.2898
lle	-10.2904
SA	-10.2911
▁tríú	-10.2914
▁geven	-10.2919
▁Ku	-10.292
mal	-10.2931
29	-10.2935
Ú	-10.2935
▁cluiche	-10.294
▁behalf	-10.294
▁incluso	-10.2941
▁ubicación	-10.2941
▁limistéar	-10.2943
▁Family	-10.2944
vid	-10.2945
▁Ten	-10.2947
▁Joint	-10.2947
▁experiencia	-10.295
▁esa	-10.2951
▁Price	-10.2951
una	-10.2951
33	-10.2951
cos	-10.2953
▁Ter	-10.296
▁archivos	-10.2962
▁tri	-10.2962
▁hebt	-10.2963
▁Dis	-10.2965
▁Share	-10.2968
▁baint	-10.2979
▁Dh	-10.298
▁powers	-10.2989
▁75	-10.2991
▁DVD	-10.2997
▁cheana	-10.2997
▁buiten	-10.2999
▁Portugal	-10.3
▁Val	-10.3001
▁host	-10.3002
▁doctor	-10.3017
▁projects	-10.3019
▁Via	-10.3024
....	-10.3029
var	-10.3039
IM	-10.304
▁slechts	-10.3041
▁German	-10.3044
fic	-10.3045
▁39	-10.3045
▁points	-10.3048
▁Aan	-10.3051
▁reatha	-10.3053
▁bodies	-10.3053
▁Master	-10.3053
▁hiomlán	-10.3054
eamh	-10.3055
▁huaire	-10.3055
▁Coimisinéirí	-10.3056
▁sense	-10.3057
▁Spanish	-10.3057
IP	-10.306
▁Back	-10.3062
fr	-10.3062
▁scríbhinn	-10.3062
room	-10.3068
▁Jun	-10.3069
El	-10.3069
werk	-10.3074
▁restaurants	-10.3083
▁ath	-10.3085
▁log	-10.3087
▁manier	-10.3088
lib	-10.3088
▁Sur	-10.3089
▁Bal	-10.3091
▁Cad	-10.3096
▁schools	-10.3101
▁FDSTAR	-10.311
500	-10.311
▁Large	-10.3111
▁Cap	-10.3111
▁déanaí	-10.3111
▁committee	-10.3112
▁bunaithe	-10.3113
▁usually	-10.3113
▁Great	-10.3116
▁quickly	-10.3116
▁therefore	-10.3116
▁album	-10.3116
ö	-10.3125
▁PDF	-10.313
▁tus	-10.3131
bla	-10.3137
.1	-10.314
▁estaba	-10.3148
ED	-10.3148
▁internacional	-10.3152
dores	-10.3152
▁matters	-10.3154
ncia	-10.3155
dia	-10.3157
-19	-10.3159
Co	-10.316
▁hair	-10.3161
,000	-10.3162
▁release	-10.3163
▁Tour	-10.3165
tais	-10.3166
▁Jesús	-10.3167
▁title	-10.3167
▁Support	-10.317
▁mass	-10.3172
▁levels	-10.3174
▁2002	-10.3174
ias	-10.3177
▁hemel	-10.3178
▁maintained	-10.3181
▁roll	-10.3188
▁forward	-10.3193
▁hour	-10.3196
▁breise	-10.3196
▁Last	-10.3199
▁Che	-10.3202
▁actions	-10.3205
▁clientes	-10.3206
▁direction	-10.3212
vert	-10.3214
ction	-10.3222
▁Jihlava	-10.3225
▁México	-10.3225
▁Kleding	-10.3225
▁dhíol	-10.3227
ime	-10.3228
▁Treoir	-10.3229
▁faisnéis	-10.3232
▁quite	-10.3232
tische	-10.3233
▁daar	-10.3238
col	-10.3242
▁allowance	-10.3243
▁went	-10.3243
▁won	-10.3247
▁village	-10.3247
▁Mr	-10.3248
▁zoda	-10.3249
▁regular	-10.325
▁hope	-10.325
▁Em	-10.3253
▁sino	-10.3255
day	-10.3256
▁teach	-10.3256
▁accept	-10.3259
▁mij	-10.326
▁8.	-10.327
ı	-10.3271
49	-10.3271
▁cé	-10.3273
rom	-10.3274
▁ama	-10.3274
▁Pen	-10.3275
▁serve	-10.3278
bro	-10.3279
▁goede	-10.3283
▁source	-10.3284
▁expression	-10.3285
▁Japan	-10.3286
park	-10.3288
▁ben	-10.3295
▁col	-10.3298
▁Most	-10.3302
▁limited	-10.3306
▁button	-10.3308
AD	-10.3317
▁Gi	-10.3322
▁Party	-10.3323
▁acts	-10.3333
▁noche	-10.3334
»	-10.3339
▁millones	-10.3341
▁contains	-10.3341
▁aplicación	-10.3342
▁tháinig	-10.3342
▁sexual	-10.3342
ica	-10.3346
▁News	-10.3347
dem	-10.3353
lijk	-10.3362
▁mac	-10.3366
▁nice	-10.3369
cent	-10.3381
▁comp	-10.3388
▁sun	-10.339
▁lán	-10.339
▁factor	-10.3392
▁cl	-10.3393
pr	-10.3394
▁modo	-10.3395
ay	-10.3396
CI	-10.3397
▁cielo	-10.3399
▁sheoladh	-10.3399
▁chomhlíonadh	-10.34
▁geleden	-10.34
▁Roimh	-10.3401
▁Garda	-10.3405
€	-10.3406
▁altijd	-10.3406
▁approved	-10.3406
ham	-10.341
▁traditional	-10.3413
▁attorneys	-10.3416
▁Yo	-10.3424
▁centrum	-10.3426
lig	-10.3433
▁electric	-10.3436
▁kg	-10.3436
▁cell	-10.3439
▁superior	-10.3441
▁fu	-10.3444
▁cal	-10.3449
▁Phríomh	-10.3458
▁virtual	-10.3458
▁rogha	-10.3458
▁cinneadh	-10.3459
▁Extra	-10.3459
▁About	-10.3459
▁fashion	-10.3459
▁pueda	-10.346
▁Click	-10.346
▁Déanfar	-10.3462
▁throughout	-10.3464
Qué	-10.3464
▁Centro	-10.3465
General	-10.3465
▁Mini	-10.3466
▁Rome	-10.3468
▁onderzoek	-10.3468
▁Motor	-10.3475
▁prior	-10.3475
IR	-10.3477
lé	-10.3479
▁consult	-10.3479
lon	-10.3481
▁familia	-10.3487
én	-10.3488
▁bad	-10.349
▁enable	-10.3494
▁ont	-10.3496
▁lamp	-10.3501
▁chineál	-10.3515
▁rinne	-10.3516
▁grow	-10.3516
▁01	-10.3517
▁Soilse	-10.3517
▁column	-10.3517
▁laghad	-10.3517
▁display	-10.352
▁status	-10.352
▁monaróirí	-10.3521
▁happy	-10.3522
▁gcoinne	-10.3522
▁essential	-10.3525
▁Wall	-10.3528
▁mejores	-10.3528
work	-10.353
▁Cé	-10.353
▁(8)	-10.3537
via	-10.3538
▁lives	-10.3541
▁connected	-10.3544
vin	-10.3548
▁leave	-10.3553
▁ga	-10.3553
Latinas	-10.3558
irm	-10.3559
36	-10.356
▁peace	-10.3565
▁heb	-10.3567
▁internal	-10.3572
wer	-10.3576
▁acceso	-10.3576
▁leagtha	-10.3577
▁bheas	-10.3578
▁1997	-10.3578
▁amend	-10.358
▁liable	-10.3581
▁fueron	-10.3581
▁sold	-10.3581
▁Year	-10.3583
▁reasonable	-10.3584
rica	-10.3584
▁cha	-10.3587
nic	-10.359
▁suite	-10.3591
▁iúl	-10.3592
▁hoge	-10.3592
ware	-10.3594
izar	-10.3596
OL	-10.3599
▁inside	-10.3601
▁6.	-10.3606
▁expenses	-10.3606
▁platform	-10.3607
▁Date	-10.3611
nen	-10.3612
▁enough	-10.3613
▁licht	-10.3615
▁print	-10.3618
idas	-10.362
▁geld	-10.362
ram	-10.3621
▁opening	-10.3622
fin	-10.3623
izado	-10.3625
rel	-10.3626
▁serious	-10.3628
tijd	-10.3633
▁taobh	-10.3636
▁mother	-10.364
ey	-10.3641
▁bent	-10.3642
▁omdat	-10.3644
▁Up	-10.3646
▁physical	-10.3648
▁réimse	-10.3655
▁error	-10.3656
▁Sol	-10.3657
▁negocio	-10.3661
yo	-10.3662
▁stage	-10.3669
▁Moncler	-10.3675
▁talk	-10.3681
▁seirbhíse	-10.369
illo	-10.3692
▁cion	-10.3695
▁utilizar	-10.3696
▁Bureau	-10.3697
▁average	-10.3697
▁Club	-10.3697
▁veces	-10.3698
▁distribution	-10.3698
▁Directorate	-10.3698
▁stainless	-10.3699
▁táirge	-10.37
▁Coiste	-10.3701
▁Factory	-10.3702
▁circumstances	-10.3704
▁helpen	-10.3704
▁selection	-10.3705
▁USB	-10.3706
▁Sal	-10.3706
▁po	-10.371
▁bhunú	-10.371
▁Stage	-10.3712
▁guests	-10.3712
▁Main	-10.3716
▁achter	-10.3717
▁aonair	-10.3718
tó	-10.3719
▁growing	-10.3727
▁clár	-10.3729
▁Code	-10.3729
▁produced	-10.373
▁snel	-10.3734
ged	-10.3736
▁empresas	-10.3736
ised	-10.3737
▁started	-10.3743
▁Asia	-10.3744
kin	-10.3744
2.	-10.3746
▁holder	-10.375
nta	-10.3754
▁correspond	-10.3756
▁Apr	-10.3756
▁RE	-10.3757
▁attention	-10.3757
▁yourself	-10.3759
▁hoofd	-10.3759
▁seven	-10.376
▁browser	-10.3764
▁Santiago	-10.3765
▁Lean	-10.3765
▁regional	-10.3767
▁Arts	-10.3768
▁workers	-10.3769
▁elk	-10.3775
▁press	-10.3781
▁artículo	-10.3785
▁Star	-10.3788
mhar	-10.3798
▁King	-10.38
▁Staten	-10.3802
▁guide	-10.3802
▁operate	-10.3803
lam	-10.3805
98	-10.3805
▁interested	-10.3807
lot	-10.3812
lí	-10.3813
▁install	-10.3817
see	-10.3818
▁Outlook	-10.3818
▁avoid	-10.3818
erd	-10.3819
▁accommodatie	-10.3821
▁border	-10.3822
chu	-10.3822
▁anois	-10.3823
▁appear	-10.3828
▁arm	-10.3829
▁usar	-10.3832
▁rock	-10.3834
▁heat	-10.3839
tan	-10.384
▁pan	-10.3841
▁lijst	-10.3842
▁round	-10.3843
▁pu	-10.3843
▁resultados	-10.3845
▁Ve	-10.3855
▁hora	-10.3859
ones	-10.3863
asta	-10.3867
▁Mark	-10.3869
ailt	-10.3878
ique	-10.3878
▁views	-10.3879
▁analysis	-10.388
▁necesario	-10.388
▁Institute	-10.388
▁dhuine	-10.388
▁storage	-10.388
▁elegir	-10.388
▁torthaí	-10.388
▁breakfast	-10.388
▁dtugtar	-10.388
▁Grootte	-10.3882
oi	-10.3882
▁Fa	-10.3888
▁actividades	-10.3889
set	-10.389
▁Dia	-10.3893
▁dháta	-10.3894
▁bag	-10.3899
▁wood	-10.3902
▁lucha	-10.3908
▁primero	-10.3909
▁vast	-10.3912
eal	-10.3915
▁venta	-10.3919
28	-10.3921
▁programs	-10.3922
▁Answers	-10.3922
▁List	-10.3926
▁soil	-10.3926
éis	-10.3927
▁command	-10.3934
▁gebied	-10.3934
▁consist	-10.3937
▁needed	-10.394
▁cead	-10.394
▁proper	-10.3941
▁Executive	-10.3941
▁Ioncaim	-10.3941
▁físeáin	-10.3941
▁basic	-10.3941
▁District	-10.3941
▁himself	-10.3942
isation	-10.3945
▁Hier	-10.3946
▁early	-10.3948
ira	-10.3952
rek	-10.3964
▁option	-10.3966
ibh	-10.3967
▁perform	-10.3969
▁six	-10.3969
gal	-10.397
▁48	-10.3974
▁shower	-10.3984
▁approach	-10.3987
▁deposit	-10.3991
▁Mag	-10.3992
fhon	-10.3993
▁Chúirt	-10.3993
▁ja	-10.3994
▁Map	-10.3999
▁Verwarming	-10.4003
▁sociedad	-10.4003
▁Michael	-10.4003
▁además	-10.4004
▁became	-10.4004
▁Nueva	-10.4004
tado	-10.4005
▁story	-10.4006
▁ese	-10.4007
▁glas	-10.4008
star	-10.4009
▁clips	-10.4011
▁Care	-10.4012
ich	-10.4014
▁parliamentar	-10.4018
▁context	-10.4022
ijn	-10.4029
aíodh	-10.4035
▁discover	-10.4036
ists	-10.4047
▁necesita	-10.4052
▁IT	-10.4054
sur	-10.406
45	-10.4064
ár	-10.4065
▁Níl	-10.4065
‐	-10.4066
▁Aghaidh	-10.4066
▁Haardroger	-10.4066
▁properties	-10.4066
▁WiFi	-10.4066
▁visual	-10.4066
▁simply	-10.4067
els	-10.4073
▁Tur	-10.4074
▁Rico	-10.4074
her	-10.4077
▁length	-10.4078
▁oifig	-10.4079
hal	-10.4087
▁euro	-10.4087
igen	-10.4088
mbra	-10.4089
nas	-10.4093
▁import	-10.4095
▁Case	-10.4102
ei	-10.4104
Ar	-10.4107
▁waren	-10.411
▁mujer	-10.4112
▁election	-10.4113
▁difficult	-10.4114
▁groot	-10.4121
▁hold	-10.4124
▁EN	-10.4124
▁37	-10.4126
▁Microsoft	-10.4129
▁automatic	-10.4129
▁establishment	-10.4135
▁procedures	-10.4135
▁century	-10.4135
▁togra	-10.4136
▁afstand	-10.4137
▁tomar	-10.4139
▁bra	-10.4139
▁Just	-10.414
▁cineál	-10.4142
▁dial	-10.4154
▁Oral	-10.4154
▁drie	-10.4162
▁USA	-10.4163
▁pounds	-10.4167
▁sports	-10.4167
▁política	-10.417
▁Amendment	-10.4172
▁Linen	-10.4172
lica	-10.4175
▁regarding	-10.4175
▁Gold	-10.4176
▁precio	-10.418
▁island	-10.4181
ari	-10.4183
▁clima	-10.4184
▁Set	-10.4187
gro	-10.4187
▁promote	-10.4193
▁Help	-10.4193
▁Whil	-10.4194
▁gevonden	-10.4195
▁influence	-10.4195
▁PRO	-10.4195
▁Double	-10.4196
▁krijgen	-10.4197
▁glan	-10.4199
▁solutions	-10.42
tions	-10.4201
íos	-10.4207
▁thus	-10.421
section	-10.4211
▁Iron	-10.4213
▁CA	-10.4216
▁especial	-10.4217
▁sur	-10.4218
ñ	-10.422
▁Dec	-10.422
CO	-10.4221
▁contacto	-10.4227
▁gl	-10.4228
ima	-10.4231
▁tro	-10.4232
ther	-10.4235
▁regulation	-10.4237
▁parents	-10.4239
▁150	-10.4239
▁dress	-10.4243
▁Australia	-10.4249
tina	-10.4253
▁lichaam	-10.4256
77	-10.4256
▁leanbh	-10.4257
▁laghdú	-10.4257
▁liom	-10.4258
▁curtha	-10.4262
kast	-10.4262
▁links	-10.4262
▁SMS	-10.4263
▁Africa	-10.4263
▁programma	-10.427
▁label	-10.4271
zar	-10.4273
▁trata	-10.4273
▁42	-10.4274
▁aistriú	-10.4275
▁Ya	-10.4276
▁determined	-10.4282
ST	-10.4283
▁minutos	-10.4283
▁monitor	-10.429
ión	-10.4291
▁aumentar	-10.4293
▁Pat	-10.4297
▁Puede	-10.4298
▁drug	-10.4303
▁gave	-10.4304
pel	-10.4305
▁haya	-10.4315
▁job	-10.4316
▁thought	-10.4317
▁Live	-10.4319
▁dteideal	-10.432
▁Cliath	-10.432
▁Dutch	-10.432
▁availability	-10.432
▁José	-10.432
▁AGUS	-10.432
▁córas	-10.4321
qua	-10.4326
sol	-10.4327
▁údaráis	-10.4327
▁7.	-10.4328
▁Bueno	-10.4328
rian	-10.4331
elen	-10.4331
▁chaighdeán	-10.4332
▁Nacional	-10.4333
▁patients	-10.4337
▁actually	-10.4337
water	-10.4337
▁súil	-10.4338
not	-10.4344
▁Za	-10.4346
▁volledig	-10.4347
▁firm	-10.4347
▁Baile	-10.4347
▁pi	-10.4351
▁convert	-10.4352
75	-10.4354
▁Door	-10.4359
IO	-10.436
▁Plant	-10.436
▁Sport	-10.4361
▁charged	-10.4363
ea	-10.4367
▁leading	-10.4368
▁equal	-10.4373
▁tube	-10.4373
▁Cam	-10.4373
▁deben	-10.4376
raí	-10.4376
▁Gran	-10.4376
▁significant	-10.4379
▁According	-10.4384
▁Corporation	-10.4384
▁Handdoeken	-10.4384
▁jullie	-10.4384
▁poiblí	-10.4384
▁Turkey	-10.4385
▁species	-10.4385
▁concept	-10.4387
▁Industrial	-10.4388
are	-10.4389
0,000	-10.439
▁Good	-10.439
▁Sofa	-10.4392
sanna	-10.4393
wood	-10.4396
▁rack	-10.44
sten	-10.4405
▁East	-10.4405
my	-10.4406
▁Den	-10.4409
▁punt	-10.4411
▁deep	-10.4412
mit	-10.4416
ense	-10.4416
▁oifigeach	-10.4417
▁EUR	-10.4418
verwachting	-10.4423
▁evening	-10.4423
▁príomh	-10.4425
▁images	-10.4425
▁Feb	-10.443
▁nithe	-10.443
ere	-10.4432
back	-10.4432
▁LE	-10.4435
▁Line	-10.4439
▁suim	-10.444
▁algunas	-10.4446
▁Airconditioning	-10.4449
▁febrero	-10.4449
▁virtue	-10.4449
▁reasons	-10.4451
osa	-10.4452
▁Tea	-10.4452
▁Programme	-10.4454
▁jaren	-10.4456
▁dúirt	-10.4457
úsáid	-10.4458
free	-10.4464
07	-10.4465
ctor	-10.4466
▁success	-10.4475
▁zelfs	-10.4478
▁Aib	-10.4481
▁Oct	-10.4487
▁systeem	-10.449
▁respond	-10.4494
▁meeste	-10.4495
▁generate	-10.4497
▁welcome	-10.4498
list	-10.4505
▁greater	-10.4511
▁Island	-10.4513
▁currency	-10.4515
▁entonces	-10.4515
▁airgid	-10.4515
▁Rialacháin	-10.4515
▁cantidad	-10.4516
▁touch	-10.4517
▁coming	-10.4517
▁Chinese	-10.4518
▁Life	-10.4518
▁associated	-10.4519
▁outdoor	-10.4519
▁43	-10.452
▁fresh	-10.452
▁spirit	-10.452
Con	-10.4521
hereby	-10.4522
▁Holiday	-10.4522
voor	-10.4524
▁beag	-10.4524
▁cities	-10.4525
▁Full	-10.4525
▁Table	-10.4526
▁hele	-10.4526
▁toiliú	-10.4528
pu	-10.4528
▁shares	-10.4532
▁exp	-10.4539
▁ready	-10.4541
▁bord	-10.4544
▁currently	-10.455
▁Visit	-10.455
▁lines	-10.4551
▁zee	-10.4557
46	-10.4558
▁join	-10.4559
type	-10.4562
▁previous	-10.4571
▁lichte	-10.4579
pan	-10.458
▁Señor	-10.4581
▁afternoon	-10.4581
▁correct	-10.4581
▁Wind	-10.4583
▁Food	-10.4584
▁féadfar	-10.4584
▁military	-10.4586
gon	-10.4586
▁relates	-10.4587
▁People	-10.4588
▁luz	-10.459
▁gar	-10.4595
▁comply	-10.4595
▁washer	-10.4597
▁dara	-10.4597
zicht	-10.4597
▁éileamh	-10.4598
▁causa	-10.4598
▁accordingly	-10.4602
▁Multi	-10.4604
▁Personal	-10.4606
▁treat	-10.4607
arios	-10.4609
org	-10.461
SI	-10.462
▁oud	-10.462
34	-10.4622
▁gobierno	-10.4629
▁derecho	-10.4631
ACHT	-10.4632
▁Sep	-10.4635
mann	-10.4636
▁naam	-10.4637
▁Uit	-10.4639
▁note	-10.4642
▁werden	-10.4643
▁Plus	-10.4644
▁yo	-10.4646
▁muscle	-10.4647
▁producción	-10.4647
▁resort	-10.4647
▁privado	-10.4648
Í	-10.4648
▁Pla	-10.4651
▁Canada	-10.4653
▁distance	-10.4654
▁faoina	-10.4654
inse	-10.4655
▁(31	-10.4665
ons	-10.4666
aje	-10.4667
▁File	-10.4668
ric	-10.4669
▁sean	-10.4671
▁operations	-10.4673
▁nemen	-10.4676
ont	-10.4677
▁Bio	-10.4677
▁Bun	-10.4679
▁Del	-10.4685
09	-10.4688
▁feature	-10.4691
▁Sun	-10.4694
▁EC	-10.4696
51	-10.4696
▁léi	-10.4696
▁siguiente	-10.4698
▁proporciona	-10.4703
oil	-10.4711
shi	-10.4712
▁aquarium	-10.4713
▁payments	-10.4714
▁entrada	-10.4714
▁vo	-10.4714
▁California	-10.4715
▁sonraithe	-10.4715
▁douche	-10.4716
▁Estado	-10.4718
▁Ciudad	-10.472
▁atención	-10.472
oma	-10.4721
▁trip	-10.4723
▁proposed	-10.4723
sha	-10.4727
ches	-10.4733
▁rep	-10.4735
có	-10.4736
mediante	-10.4738
▁Time	-10.4751
▁lang	-10.4758
hor	-10.4759
▁Also	-10.4759
ender	-10.4761
▁Old	-10.4761
▁obtain	-10.4762
▁Flights	-10.4763
áir	-10.4764
▁riesgo	-10.4766
▁Beds	-10.4766
▁viaje	-10.4772
97	-10.4773
▁Site	-10.4774
tóir	-10.4775
▁balance	-10.4776
▁Make	-10.4779
▁alcohol	-10.4781
▁energía	-10.4781
▁sommige	-10.4781
▁respuesta	-10.4781
▁corazón	-10.4781
▁Network	-10.4781
▁repair	-10.4782
▁relationship	-10.4782
▁gain	-10.4784
▁Údarás	-10.4784
▁zeker	-10.4785
▁Word	-10.4785
▁conas	-10.4786
wijl	-10.4787
▁tapa	-10.4789
ped	-10.479
▁Rights	-10.4796
▁earraí	-10.48
tú	-10.4806
It	-10.4808
▁asked	-10.4808
▁againn	-10.4812
ën	-10.4813
▁tír	-10.4814
▁Hostel	-10.4816
▁É	-10.4822
ku	-10.4826
ford	-10.4829
▁Science	-10.4835
▁villa	-10.4836
▁ability	-10.4839
huis	-10.4843
lach	-10.4844
▁furniture	-10.4848
▁gceist	-10.4848
▁definition	-10.4848
▁droog	-10.4848
▁Telephone	-10.4848
▁Software	-10.4848
▁everyone	-10.4852
▁Town	-10.4853
▁cent	-10.4853
▁famous	-10.4855
▁Today	-10.4857
▁institutions	-10.4859
▁Metal	-10.4864
▁bp	-10.4865
02	-10.4869
▁covered	-10.4872
▁poor	-10.4877
▁íocaíocht	-10.4877
▁tour	-10.488
▁Oifig	-10.488
▁holding	-10.4881
▁imeachtaí	-10.4881
book	-10.4884
▁vrij	-10.4885
▁employees	-10.4885
▁answer	-10.4887
▁caused	-10.4888
▁horas	-10.4888
band	-10.4889
tten	-10.4889
▁Each	-10.4896
▁comhalta	-10.4905
▁chlár	-10.4911
▁hen	-10.4912
▁cúram	-10.4912
▁race	-10.4912
▁responsibility	-10.4916
▁estilo	-10.4916
▁cúig	-10.4916
▁Annex	-10.4918
▁combination	-10.4919
▁Natural	-10.4919
▁rather	-10.4919
-1	-10.4925
▁vista	-10.4925
▁Pan	-10.4925
▁electronic	-10.4927
▁ST	-10.493
▁blog	-10.4934
▁nár	-10.4936
▁Love	-10.4945
▁hoteles	-10.4948
▁MP	-10.4948
(3)	-10.4949
▁institution	-10.4949
pic	-10.4969
Al	-10.4971
itis	-10.4977
▁eye	-10.4981
hat	-10.4982
67	-10.4984
38	-10.4984
▁Bolivia	-10.4985
▁Silver	-10.4985
▁Chuid	-10.4985
▁Aontas	-10.4986
▁Cristo	-10.4986
▁gníomhaíochtaí	-10.4987
▁load	-10.4988
▁extend	-10.499
▁Féadfar	-10.4995
including	-10.5003
▁speak	-10.5006
field	-10.5007
nár	-10.5007
▁Pal	-10.5008
▁Tag	-10.5009
▁44	-10.5009
▁interests	-10.5011
▁corr	-10.5012
▁standards	-10.5014
▁Oil	-10.5015
bouw	-10.5019
ping	-10.502
▁realizar	-10.5022
▁USD	-10.5025
iza	-10.5025
▁weeks	-10.5026
85	-10.5027
37	-10.503
▁parking	-10.5034
dll	-10.504
▁nor	-10.5041
▁instruments	-10.5042
▁mag	-10.5043
▁FOR	-10.5047
ple	-10.5049
▁seen	-10.5051
▁picture	-10.5053
▁Agreement	-10.5054
▁soilsiú	-10.5054
▁terrace	-10.5054
▁Pandora	-10.5054
▁hAchtanna	-10.5054
▁compañía	-10.5054
▁menu	-10.5055
▁nothing	-10.5055
ques	-10.5056
▁written	-10.5058
▁involved	-10.5058
▁Royal	-10.5058
▁mbun	-10.5059
Car	-10.5063
row	-10.5074
48	-10.5082
east	-10.5083
aill	-10.5083
ust	-10.5089
▁Nov	-10.509
▁reduced	-10.5094
LO	-10.5098
▁passing	-10.5098
▁completed	-10.5105
▁bestand	-10.5106
weg	-10.5108
▁Cho	-10.5112
▁advance	-10.5113
▁pueblo	-10.5116
UL	-10.5117
▁dirección	-10.5123
▁swimming	-10.5123
▁taighde	-10.5123
▁bieden	-10.5123
▁íoslódáil	-10.5123
▁cooperation	-10.5124
▁geeft	-10.5124
▁kopen	-10.5124
▁Robert	-10.5124
▁Tweets	-10.5128
▁Manager	-10.5133
▁Leas	-10.5134
▁Chapter	-10.5136
Le	-10.5138
slag	-10.5139
[	-10.5141
▁treated	-10.5143
▁requires	-10.5145
▁Game	-10.5149
▁llegar	-10.5151
▁ríomh	-10.5157
▁hands	-10.5161
▁damage	-10.5165
▁weten	-10.5165
▁UK	-10.5166
▁fabric	-10.5168
▁Us	-10.5169
▁Les	-10.5169
iarratas	-10.5175
▁develop	-10.518
▁fundamental	-10.5181
▁selected	-10.5183
▁rain	-10.5184
▁partners	-10.5185
▁enkele	-10.5187
▁Tweet	-10.5192
▁Rotterdam	-10.5193
▁construed	-10.5193
▁insurance	-10.5193
▁response	-10.5193
▁seoladh	-10.5193
▁amplia	-10.5193
▁Facilities	-10.5193
▁profile	-10.5194
▁habitación	-10.5195
▁authorised	-10.5199
▁riachtanach	-10.5204
▁éadrom	-10.5205
▁external	-10.5205
▁Gri	-10.5206
sórt	-10.5211
▁completely	-10.5215
▁usuarios	-10.5217
▁tender	-10.5221
▁rond	-10.5223
eth	-10.5228
▁Wa	-10.5232
eu	-10.5235
▁shop	-10.5238
▁mean	-10.5238
è	-10.5243
▁muchas	-10.5244
▁liosta	-10.5245
▁shown	-10.5246
▁deel	-10.5252
▁Af	-10.5254
▁hear	-10.5256
istí	-10.526
▁roghnú	-10.5263
▁thaobh	-10.5263
▁geschikt	-10.5264
▁flow	-10.5266
▁1923	-10.5266
▁Wake	-10.5266
▁chúis	-10.5267
▁Washington	-10.5267
▁Collection	-10.5268
post	-10.5268
▁appointment	-10.5271
▁Why	-10.5272
stal	-10.5272
▁news	-10.5272
▁compra	-10.5273
▁eyes	-10.5274
▁presented	-10.5274
▁Image	-10.5274
▁Brand	-10.5276
DE	-10.5287
SD	-10.529
▁cat	-10.5291
▁laten	-10.5296
▁rún	-10.5297
▁confirm	-10.5298
rado	-10.5301
▁pain	-10.5304
▁item	-10.5313
▁nd	-10.5314
uren	-10.5317
ará	-10.5318
▁Camp	-10.5319
dar	-10.5319
fra	-10.5322
lim	-10.5323
lian	-10.5324
▁Ski	-10.533
ations	-10.533
▁fácil	-10.5331
▁chosaint	-10.5334
▁ghnáth	-10.5334
▁strategy	-10.5334
▁leanúint	-10.5335
▁Father	-10.5335
▁faisnéise	-10.5335
▁running	-10.5335
▁height	-10.5335
▁Douche	-10.5336
▁tugadh	-10.5336
▁cambio	-10.5339
▁glacadh	-10.5342
▁recovery	-10.5342
▁fl	-10.5342
pin	-10.5346
▁ion	-10.5349
▁club	-10.5352
▁Ju	-10.5353
▁fair	-10.5353
▁aird	-10.5353
▁meters	-10.5357
▁pick	-10.536
39	-10.5361
▁staan	-10.5364
▁Attorneys	-10.5365
To	-10.537
zu	-10.5374
ments	-10.5381
▁Cat	-10.5384
▁mheas	-10.5385
▁closet	-10.5386
▁chair	-10.5387
▁bri	-10.5387
▁Even	-10.5391
nis	-10.5393
▁virus	-10.5402
gna	-10.5404
▁exterior	-10.5406
▁pantalla	-10.5406
▁population	-10.5406
▁fhaisnéis	-10.5406
▁increased	-10.5408
▁41	-10.541
▁sláinte	-10.5412
chta	-10.5416
▁ru	-10.5423
▁prepared	-10.5424
▁hi	-10.5433
based	-10.5436
mic	-10.5438
▁nieuw	-10.5439
76	-10.544
▁boven	-10.5441
▁pasado	-10.5441
▁hoog	-10.5451
▁minder	-10.5453
▁Trade	-10.5457
▁engine	-10.5457
▁refer	-10.5458
▁methods	-10.546
▁Inc	-10.5461
▁rule	-10.5464
En	-10.5469
ME	-10.547
▁paar	-10.5475
▁rich	-10.5475
▁Bru	-10.5475
▁lleva	-10.5476
mes	-10.5476
▁idirnáisiúnta	-10.5478
▁uitzicht	-10.5481
▁voorzien	-10.5481
ned	-10.5482
▁expert	-10.5482
tte	-10.5482
▁láithreach	-10.5483
term	-10.5484
▁minimum	-10.5485
▁mental	-10.5486
iek	-10.5486
oso	-10.5491
uck	-10.5493
▁Á	-10.5495
▁eenvoudig	-10.5496
▁delivery	-10.5496
▁bán	-10.5497
▁machines	-10.55
▁spring	-10.5501
▁Trí	-10.5502
▁Nos	-10.5507
▁likely	-10.5509
▁ayudar	-10.551
▁Ball	-10.5513
ash	-10.5514
▁mono	-10.5515
ë	-10.5515
lijke	-10.5519
▁clic	-10.552
Me	-10.5522
pending	-10.5523
▁films	-10.5523
kk	-10.5525
PE	-10.5526
▁though	-10.5528
▁46	-10.5529
▁Chomh	-10.5532
MO	-10.5532
▁capacidad	-10.5534
wo	-10.5534
iga	-10.5542
uid	-10.5544
▁Har	-10.5547
▁díospóireacht	-10.5548
bed	-10.5549
▁Iglesia	-10.555
▁prejudice	-10.555
▁Toiletartikelen	-10.555
eoir	-10.5551
RT	-10.5551
▁Maidir	-10.5551
▁Flatscreen	-10.5551
▁·	-10.5553
▁baño	-10.5554
▁highly	-10.5555
▁beartaithe	-10.5555
DS	-10.5555
code	-10.5555
/1	-10.5556
▁tv	-10.5557
▁Note	-10.5558
▁seirbhís	-10.5559
▁klanten	-10.5565
▁recommended	-10.5566
▁pet	-10.5572
▁09	-10.5576
100	-10.5577
▁debido	-10.5578
▁guard	-10.5579
don	-10.5579
▁Inn	-10.5583
▁privacy	-10.5587
▁urban	-10.5591
ificación	-10.5591
▁aim	-10.5592
▁Action	-10.5592
▁casi	-10.5594
oy	-10.5597
▁ante	-10.5598
▁mhaith	-10.5599
▁faith	-10.5602
ably	-10.5603
tric	-10.5605
▁agent	-10.561
▁bestanden	-10.5611
▁began	-10.5612
▁madera	-10.5615
Por	-10.5615
▁modh	-10.5615
▁thanks	-10.5617
-5	-10.5617
▁Par	-10.5619
▁fill	-10.5621
▁Tiempo	-10.5623
▁applicant	-10.5623
▁conference	-10.5623
▁dhosmálta	-10.5623
▁receipt	-10.5623
▁tairiscint	-10.5623
▁Policy	-10.5623
▁luego	-10.5624
▁Rolex	-10.5624
▁duties	-10.5624
▁gCoimisiún	-10.5625
▁Zuid	-10.5625
▁Dining	-10.5626
RC	-10.5629
Deliver	-10.5629
▁models	-10.5631
▁Model	-10.5631
▁compliance	-10.5632
▁debt	-10.5634
-18	-10.5636
part	-10.5637
For	-10.5639
▁werken	-10.5641
pas	-10.5641
▁úsáidtear	-10.5643
minute	-10.5645
▁Coffee	-10.5645
ela	-10.5646
▁placed	-10.5649
▁VI	-10.565
▁manager	-10.5656
▁ways	-10.566
Com	-10.566
fho	-10.5665
ery	-10.5665
ious	-10.5666
▁cells	-10.5669
▁49	-10.567
table	-10.5672
96	-10.5674
-3	-10.5678
▁wear	-10.5686
▁doing	-10.5687
mbre	-10.5688
▁studies	-10.5688
áilte	-10.5688
▁ads	-10.5689
▁costais	-10.5691
ient	-10.5692
▁cláraithe	-10.5692
▁comprar	-10.5693
▁achieve	-10.5695
▁Economic	-10.5697
▁imágenes	-10.5697
▁Location	-10.5697
▁thoradh	-10.5697
▁gemakkelijk	-10.5697
▁éigin	-10.5697
▁yellow	-10.5697
▁inniu	-10.5697
▁strand	-10.5697
▁Usted	-10.5698
icht	-10.5699
▁cheapadh	-10.5702
▁réamh	-10.5704
▁haber	-10.5706
▁detailed	-10.571
▁vote	-10.5713
▁Uimhir	-10.5713
▁mix	-10.5715
tta	-10.5716
▁miles	-10.5718
▁edge	-10.5718
ían	-10.5718
71	-10.5722
▁spend	-10.5723
▁useful	-10.5724
▁served	-10.5725
▁dath	-10.5737
▁53	-10.5738
▁Details	-10.5738
ball	-10.5744
▁amor	-10.5744
▁chain	-10.5747
▁Hall	-10.5747
▁arts	-10.575
▁Aires	-10.575
▁Pay	-10.5753
▁alles	-10.5754
▁Pet	-10.5756
ería	-10.5761
but	-10.5762
▁Fire	-10.5764
▁track	-10.5766
bestand	-10.5768
▁eat	-10.5769
▁alquiler	-10.5771
▁leagtar	-10.5771
▁Golf	-10.5771
▁Website	-10.5771
▁Náisiúnta	-10.5772
▁Samsung	-10.5772
char	-10.5775
▁bhua	-10.5775
▁apoyo	-10.5775
▁diverse	-10.5776
▁foot	-10.5776
▁character	-10.5777
▁gcion	-10.5779
▁Bag	-10.578
▁Bel	-10.5782
▁verder	-10.5787
wn	-10.5789
▁Lees	-10.5789
▁léas	-10.579
▁Hay	-10.5791
voorzieningen	-10.5793
ál	-10.5793
▁hart	-10.5798
iers	-10.5798
ese	-10.5799
▁passed	-10.58
▁assist	-10.5807
▁sell	-10.5814
head	-10.582
rol	-10.5822
lat	-10.5822
vent	-10.5829
▁Direct	-10.5836
app	-10.5837
▁secure	-10.5838
▁Im	-10.5841
▁custom	-10.5845
▁guilty	-10.5845
▁judge	-10.5845
▁kettle	-10.5846
▁Frankrijk	-10.5846
▁choinneáil	-10.5846
▁measfar	-10.5846
▁charm	-10.5846
▁investigación	-10.5847
▁junto	-10.5853
▁sensor	-10.5854
▁package	-10.5854
▁father	-10.5854
TO	-10.5857
▁block	-10.586
▁siguientes	-10.5862
▁breith	-10.5864
▁fuera	-10.5875
▁podrá	-10.5877
▁soft	-10.5882
hou	-10.5882
chán	-10.5883
irg	-10.5884
▁Dat	-10.5885
▁nacional	-10.5905
UR	-10.5907
▁comhair	-10.5909
▁reports	-10.5914
▁saol	-10.5914
▁Beal	-10.5916
▁Kitchen	-10.5917
dis	-10.592
▁Wardrobe	-10.5921
▁luxury	-10.5921
▁Therefore	-10.5921
▁alternative	-10.5921
erhouding	-10.5921
▁submitted	-10.5922
▁operating	-10.5922
▁Reserve	-10.5922
▁gcónaí	-10.5922
▁laatste	-10.5922
▁tuarascáil	-10.5923
▁environmental	-10.5924
uff	-10.5925
▁boek	-10.5926
▁sales	-10.5926
▁references	-10.5926
▁estudio	-10.5933
▁bhealach	-10.5934
▁ship	-10.5938
mba	-10.5938
▁mil	-10.594
▁sala	-10.594
▁espacio	-10.5942
▁et	-10.5942
▁47	-10.5943
▁camp	-10.5944
▁frame	-10.5945
▁maintain	-10.5947
▁pos	-10.5947
arm	-10.5949
imp	-10.595
▁records	-10.5951
▁nuestras	-10.5954
▁vari	-10.5959
▁dhí	-10.5966
▁heard	-10.5967
▁quiere	-10.5968
▁player	-10.5979
▁hire	-10.5981
▁Bol	-10.5985
▁airde	-10.5988
▁offered	-10.5989
▁manual	-10.5991
PART	-10.5991
burg	-10.5994
né	-10.5995
▁hijos	-10.5995
▁path	-10.5996
▁crear	-10.5996
▁vochtigheid	-10.5996
▁camino	-10.5998
▁cuirfear	-10.5999
▁papel	-10.5999
▁gceannas	-10.6002
▁author	-10.6003
▁elements	-10.6004
▁apartments	-10.6004
▁huge	-10.6004
dan	-10.6006
jar	-10.6007
▁steps	-10.6008
▁flowers	-10.6009
▁county	-10.6009
▁supplier	-10.6009
▁chruthú	-10.601
▁koop	-10.6012
EM	-10.6013
▁letter	-10.6013
ores	-10.6016
▁told	-10.6018
Amendment	-10.602
▁king	-10.6028
▁dice	-10.6029
▁vuelos	-10.603
▁65	-10.603
▁bail	-10.6031
▁remain	-10.6035
▁Farm	-10.6048
tjes	-10.6049
ien	-10.6051
▁forms	-10.6053
Mo	-10.6053
rry	-10.6057
▁vele	-10.6059
▁Peru	-10.606
▁demand	-10.6066
irí	-10.6068
cido	-10.607
▁significa	-10.6071
▁Cluichí	-10.6073
▁Industry	-10.6073
▁gcrích	-10.6073
▁Internacional	-10.6073
▁nunca	-10.6073
▁chéanna	-10.6073
▁submit	-10.6073
▁toegang	-10.6073
▁hombres	-10.6073
▁scientific	-10.6073
▁blijven	-10.6073
▁Plastic	-10.6076
▁square	-10.6076
▁Duitsland	-10.6076
▁genieten	-10.6077
▁drops	-10.6078
bio	-10.608
▁intended	-10.608
▁Are	-10.6081
▁golf	-10.6082
▁vindt	-10.6088
▁nuevas	-10.6093
▁miembros	-10.6095
CUID	-10.6097
scríobh	-10.6097
▁realidad	-10.6106
▁warms	-10.6106
▁Dí	-10.611
dio	-10.6113
▁Déan	-10.6117
▁Follow	-10.612
▁extract	-10.6122
▁strength	-10.6123
COM	-10.6127
dro	-10.6127
-12	-10.6129
▁Big	-10.613
▁emp	-10.6137
▁chomhalta	-10.6139
▁55	-10.6141
▁manifest	-10.6147
▁plaatsen	-10.6147
▁scaireanna	-10.615
1°	-10.615
▁eolais	-10.615
▁shonraítear	-10.615
ná	-10.6151
▁siúl	-10.6152
▁favorite	-10.6152
▁hizo	-10.6153
▁parlaiminteach	-10.6153
▁Quality	-10.6154
TC	-10.6154
▁proces	-10.6156
▁climate	-10.6159
▁cruach	-10.6163
▁powerful	-10.6163
▁largest	-10.6164
▁tecnología	-10.6165
▁fuerte	-10.6165
more	-10.6166
▁Tourist	-10.6171
▁tips	-10.6172
▁late	-10.6175
▁em	-10.6175
▁cancer	-10.6178
stel	-10.618
▁aid	-10.619
▁relacionados	-10.6195
▁fight	-10.6197
ala	-10.6197
aca	-10.62
MS	-10.6211
▁lie	-10.6213
▁(3	-10.6214
NE	-10.6218
▁ola	-10.6226
▁indica	-10.6226
▁College	-10.6227
▁exclusive	-10.6227
▁́	-10.6227
▁behind	-10.6227
▁star	-10.6227
▁administrative	-10.6227
▁frente	-10.6228
▁experiment	-10.6229
▁Mal	-10.623
▁carga	-10.6231
▁toilet	-10.6232
▁Modern	-10.6234
etes	-10.624
▁ideas	-10.6243
cula	-10.6244
tóirí	-10.6246
▁girls	-10.6248
▁grond	-10.6249
▁2020	-10.6251
▁count	-10.6257
▁manage	-10.6265
▁appears	-10.6268
ló	-10.6271
▁Peter	-10.6273
▁Form	-10.6273
▁protected	-10.6275
▁aún	-10.6277
ION	-10.6278
nie	-10.6286
▁instructions	-10.6293
▁websites	-10.6302
▁deals	-10.6303
tainless	-10.6303
▁fee	-10.6304
▁electrónico	-10.6305
▁expenditure	-10.6305
▁steeds	-10.6305
▁rialachán	-10.6305
▁fhógra	-10.6305
▁keuze	-10.6305
▁Minibar	-10.6306
▁bhéal	-10.6306
▁ka	-10.6306
anda	-10.6307
▁vaak	-10.6308
▁Francisco	-10.631
▁gcomhairle	-10.631
▁Die	-10.631
▁church	-10.6312
▁Building	-10.6313
plan	-10.6314
▁stress	-10.6317
▁ham	-10.6319
▁Tal	-10.6319
nú	-10.632
▁Metro	-10.6326
▁(9)	-10.633
▁aunque	-10.633
▁250	-10.6332
▁dedicado	-10.6333
▁vier	-10.6333
▁Photo	-10.6334
▁decide	-10.6334
▁Ed	-10.6335
▁leath	-10.6337
een	-10.6345
▁entered	-10.6348
▁reserva	-10.6349
wi	-10.6349
roll	-10.6351
▁AR	-10.6356
ans	-10.6359
▁thos	-10.6361
▁progress	-10.6367
▁Automatic	-10.6368
▁sm	-10.6381
▁houden	-10.6383
▁Deposit	-10.6383
▁Refrigerator	-10.6384
▁Revenue	-10.6384
▁mhonarcha	-10.6384
▁piscina	-10.6384
▁situación	-10.6384
▁buurt	-10.6384
▁Small	-10.6384
▁léamh	-10.6384
▁Omega	-10.6384
▁chlárú	-10.6384
▁voice	-10.6385
▁declaration	-10.6385
▁exhibition	-10.6386
▁constant	-10.6387
▁spa	-10.6387
▁coffee	-10.6387
▁Spring	-10.6387
▁Block	-10.6389
▁Language	-10.6389
▁Global	-10.639
▁verblijf	-10.639
álacha	-10.639
▁humanos	-10.6391
Stiúrthóireacht	-10.6393
▁sufficient	-10.6394
▁prijzen	-10.6397
rios	-10.6398
▁fixed	-10.6398
▁Well	-10.6403
IG	-10.6404
▁filter	-10.6406
▁organisation	-10.6407
55	-10.6412
▁grave	-10.6414
bon	-10.6415
▁keer	-10.6416
41	-10.6417
▁komt	-10.6419
▁curso	-10.642
▁MA	-10.6422
nn	-10.6427
▁forest	-10.643
UN	-10.643
▁drink	-10.6434
nach	-10.6436
▁Ki	-10.6437
King	-10.644
▁Juegos	-10.6441
89	-10.6441
▁deara	-10.6453
pho	-10.6454
ders	-10.6454
TH	-10.6455
▁Sta	-10.6455
▁stone	-10.6463
▁Subject	-10.6463
▁ráiteas	-10.6463
▁elkaar	-10.6464
▁extent	-10.6464
▁commencement	-10.6464
▁database	-10.6464
▁infheidhme	-10.6464
▁correo	-10.6464
▁numero	-10.6464
▁sula	-10.6464
▁Ob	-10.6466
▁mantener	-10.6467
▁margadh	-10.6468
▁voltage	-10.647
▁Mary	-10.6471
▁1:	-10.6471
▁dhéanfar	-10.6473
▁vis	-10.6474
▁Fu	-10.6478
view	-10.6478
▁Win	-10.648
▁joint	-10.6482
▁clock	-10.6483
top	-10.6486
▁street	-10.6486
itheoir	-10.6487
▁interesting	-10.6488
▁taste	-10.6496
▁Holy	-10.6497
▁Sonraí	-10.6499
▁Suite	-10.6503
▁Rica	-10.6504
▁particularly	-10.6507
▁Rent	-10.6509
▁animals	-10.6511
▁tree	-10.6518
▁funciona	-10.6524
ack	-10.6527
▁comunidad	-10.6527
▁pot	-10.6529
▁feeling	-10.6533
▁ng	-10.6535
hr	-10.6541
▁objectives	-10.6541
­	-10.6543
▁áirithiú	-10.6543
▁Aeropuerto	-10.6543
▁dream	-10.6543
stre	-10.6543
▁History	-10.6544
▁doesn	-10.6544
▁kept	-10.6544
▁becomes	-10.6547
▁satisfied	-10.6548
▁DFómh	-10.6549
▁varios	-10.6552
▁Os	-10.6552
▁Down	-10.6553
▁quien	-10.6553
▁iontach	-10.6558
taí	-10.656
▁gebruikers	-10.656
▁64	-10.6561
▁measure	-10.6567
ï	-10.6568
Cómo	-10.6572
Moncler	-10.6572
uda	-10.6576
▁semana	-10.6583
▁master	-10.6584
58	-10.6586
▁lack	-10.6587
▁cothrom	-10.6592
▁Italian	-10.6593
▁partir	-10.6593
▁laat	-10.6606
▁Trans	-10.6611
▁arb	-10.6613
▁Spirit	-10.6623
▁América	-10.6624
▁Belgium	-10.6624
▁België	-10.6624
▁Satellite	-10.6624
▁efficiency	-10.6624
▁última	-10.6624
▁relief	-10.6624
stand	-10.6624
▁Dollar	-10.6624
▁Venezuela	-10.6624
▁fhorbairt	-10.6624
▁Resort	-10.6624
▁Beddengoed	-10.6624
▁opportunities	-10.6624
▁seilbh	-10.6624
▁scoth	-10.6624
▁Anavar	-10.6624
▁vandaag	-10.6624
▁pump	-10.6626
▁bheadh	-10.6626
▁Bedden	-10.6626
▁slí	-10.6629
▁iompar	-10.6632
year	-10.6632
▁festival	-10.6633
▁choimeád	-10.6633
▁vakantie	-10.6635
▁MI	-10.6636
▁tuin	-10.6638
▁valid	-10.6641
▁Santo	-10.6641
off	-10.6647
▁erg	-10.6647
▁defined	-10.6648
▁welke	-10.6648
▁installed	-10.6649
▁Gan	-10.6652
▁Russian	-10.6653
power	-10.6657
▁Tro	-10.6658
▁offering	-10.6662
▁vision	-10.6662
68	-10.6663
Lo	-10.6666
middel	-10.6668
▁lado	-10.6674
Be	-10.6675
mento	-10.6679
ppen	-10.6689
uz	-10.6691
▁Current	-10.6695
▁Que	-10.6695
44	-10.6697
▁stated	-10.6702
▁Tre	-10.6702
▁UN	-10.6703
▁books	-10.6705
▁foreign	-10.6705
▁couple	-10.6705
▁Uitzicht	-10.6706
ongeveer	-10.6706
ordinary	-10.6706
▁worldwide	-10.6706
▁resistance	-10.6706
▁palabras	-10.6707
Mar	-10.6707
gníomhartha	-10.6708
▁geboren	-10.671
▁consultation	-10.6715
▁Au	-10.6716
▁52	-10.6716
▁historical	-10.6716
▁Rock	-10.6716
91	-10.6718
▁programas	-10.6718
▁gelegen	-10.672
▁getting	-10.6724
bol	-10.6734
▁multiple	-10.6735
79	-10.6735
▁Gas	-10.6737
▁mission	-10.6738
▁orden	-10.6738
▁halt	-10.6742
▁tacaíocht	-10.6743
hand	-10.6743
▁monitoring	-10.6744
grad	-10.6744
200	-10.6749
plant	-10.6751
▁generally	-10.6752
hotel	-10.6752
AP	-10.6753
bili	-10.6754
lina	-10.6756
▁Pol	-10.6757
▁mano	-10.6758
$	-10.6761
para	-10.6763
▁meas	-10.6764
hair	-10.6772
▁plate	-10.6773
▁nuevos	-10.6773
▁Ear	-10.6774
istic	-10.6777
▁Led	-10.6777
▁Kan	-10.6779
▁bro	-10.6779
64	-10.6781
▁Manufacturers	-10.6781
▁vehicles	-10.6782
▁Egypt	-10.6784
uair	-10.6785
▁Después	-10.6787
▁Telefoon	-10.6787
▁attempt	-10.6787
▁substitution	-10.6789
▁chúirt	-10.679
▁1998	-10.679
▁ir	-10.679
▁earth	-10.6793
▁praghas	-10.6794
▁fa	-10.6795
▁colors	-10.6797
rico	-10.6798
▁describe	-10.6799
▁Since	-10.6799
▁koud	-10.6803
▁díol	-10.6805
▁esté	-10.6812
systeem	-10.6818
snelheid	-10.6818
ati	-10.6818
▁registro	-10.6819
▁propia	-10.682
▁aici	-10.6823
▁Noord	-10.6824
▁window	-10.6824
▁400	-10.6824
▁bhain	-10.683
▁51	-10.683
cus	-10.6831
:30	-10.6832
▁sásta	-10.6832
▁piece	-10.684
dá	-10.6841
▁caighdeán	-10.6841
86	-10.6841
▁muestra	-10.6841
▁formula	-10.6842
ray	-10.6845
▁Il	-10.6845
▁Russia	-10.6846
jan	-10.6853
▁saw	-10.6853
uro	-10.6855
▁gi	-10.6857
▁pad	-10.6857
▁ró	-10.6857
urs	-10.6859
▁successful	-10.6861
▁Parlaimint	-10.6861
▁got	-10.6862
▁rang	-10.6863
▁kleur	-10.6867
▁Professional	-10.687
▁Slippers	-10.687
▁búsqueda	-10.687
▁risico	-10.687
▁shampla	-10.687
▁domhain	-10.687
▁Access	-10.687
lacht	-10.687
▁Hearing	-10.687
▁trading	-10.6871
▁Restaurant	-10.6871
▁reduction	-10.6872
▁mion	-10.6872
▁Document	-10.6873
▁focal	-10.6874
▁probleem	-10.6874
▁sta	-10.6874
▁iompair	-10.6874
lán	-10.6876
▁consideration	-10.6877
09-2019	-10.6878
▁riachtanais	-10.6881
▁Pra	-10.6881
▁©	-10.6887
▁animal	-10.6888
▁Roman	-10.6889
▁ho	-10.689
▁conectar	-10.689
▁reflect	-10.6891
▁pin	-10.6897
rap	-10.6897
▁boeken	-10.69
▁signed	-10.69
lies	-10.6901
▁hundred	-10.6903
▁clase	-10.6903
▁Place	-10.6905
put	-10.6908
▁object	-10.6908
mber	-10.6912
iúla	-10.6912
▁healthy	-10.6919
▁AD	-10.6923
▁Bed	-10.6923
▁recommend	-10.6932
blad	-10.6937
▁pop	-10.6939
nu	-10.6941
box	-10.6942
▁enhance	-10.695
▁brain	-10.6951
▁choinníoll	-10.6953
▁ginearálta	-10.6953
▁keuken	-10.6953
▁strive	-10.6953
▁toegevoegd	-10.6953
▁ceanglais	-10.6953
▁Jack	-10.6953
▁Frank	-10.6954
▁committed	-10.6954
▁silver	-10.6954
▁practical	-10.6956
▁Treaty	-10.6957
with	-10.6959
▁energie	-10.6962
▁qui	-10.6963
▁Regional	-10.6963
▁museum	-10.6963
▁dóigh	-10.6963
▁river	-10.6964
▁zwembad	-10.6965
▁Print	-10.6967
▁contribute	-10.6969
▁Va	-10.6971
▁estructura	-10.6972
▁54	-10.6977
▁ionann	-10.698
▁rating	-10.6981
▁echt	-10.6983
▁Cla	-10.6983
▁público	-10.6988
▁colour	-10.6991
▁fan	-10.6992
▁Fair	-10.6994
▁res	-10.6996
▁mhór	-10.6997
▁families	-10.6999
▁Gaeltachta	-10.7003
▁reis	-10.7004
▁transform	-10.7005
▁leaves	-10.7005
▁win	-10.7008
▁desea	-10.7008
▁waste	-10.7009
éanfaidh	-10.7009
NA	-10.7011
▁Excel	-10.7014
▁Music	-10.7016
▁sheet	-10.7017
ified	-10.702
▁cheannach	-10.702
mont	-10.7025
▁arte	-10.7029
▁trial	-10.7032
▁utiliza	-10.7034
▁birth	-10.7037
▁Energy	-10.7037
▁campaign	-10.7037
▁choosing	-10.7037
▁grúpa	-10.7037
▁Defence	-10.7037
▁Choimisiún	-10.7037
▁cosanta	-10.7038
▁nádúrtha	-10.7038
▁podemos	-10.7038
▁wife	-10.7038
▁finish	-10.7038
bilidad	-10.7038
▁cast	-10.7039
▁dinero	-10.704
▁Cancel	-10.704
?"	-10.704
▁Comp	-10.7041
▁luaithe	-10.7042
▁hordú	-10.7043
▁situated	-10.7044
éal	-10.7047
uil	-10.7047
▁NL	-10.7049
88	-10.7049
▁exist	-10.7051
▁server	-10.7052
▁meses	-10.7054
▁Lá	-10.7054
imos	-10.7054
▁Vol	-10.7057
▁described	-10.706
▁Eco	-10.7061
▁apart	-10.7064
▁worth	-10.7064
▁clouds	-10.7066
▁SA	-10.7068
▁$1	-10.7069
▁seach	-10.7073
▁employee	-10.7076
▁disponibles	-10.7078
▁comment	-10.708
▁familie	-10.7081
▁iets	-10.7086
▁learning	-10.709
▁sort	-10.7094
▁prepare	-10.71
eros	-10.7101
▁ne	-10.7103
din	-10.7103
▁Dá	-10.7108
▁subsequent	-10.7112
izing	-10.7115
▁ingredients	-10.7119
▁Mel	-10.7121
dal	-10.7121
▁oude	-10.7121
▁Grúpa	-10.7122
▁council	-10.7122
▁incurred	-10.7122
▁Texas	-10.7122
▁tarjeta	-10.7122
▁trádála	-10.7122
▁blo	-10.7123
▁railway	-10.7123
▁Bhord	-10.7123
▁investigation	-10.7126
▁tabhairt	-10.7128
▁Earth	-10.7128
▁Desde	-10.7128
▁Onze	-10.7129
▁efficient	-10.7129
▁someone	-10.713
bus	-10.713
▁iasc	-10.713
DA	-10.7131
▁Like	-10.7133
▁flash	-10.7139
▁incluye	-10.7143
▁independent	-10.7143
▁leanúna	-10.7149
ore	-10.715
dom	-10.7151
▁Elektrisch	-10.7151
▁descargar	-10.7153
taal	-10.7157
▁huid	-10.7158
▁Key	-10.7159
naí	-10.716
test	-10.7162
ld	-10.7163
▁advantage	-10.7166
▁organization	-10.7166
▁°	-10.7167
stone	-10.7168
▁follows	-10.7174
ole	-10.7177
vat	-10.7179
▁Fer	-10.7182
▁ring	-10.7184
▁tr	-10.7184
▁56	-10.7185
▁Áth	-10.7186
pping	-10.719
43	-10.719
arra	-10.7195
▁CE	-10.7196
-8	-10.7197
▁2)	-10.7199
▁former	-10.7201
▁Sign	-10.7202
MC	-10.7206
▁processes	-10.7206
▁Apartments	-10.7206
▁Association	-10.7207
▁advice	-10.7207
▁subparagraph	-10.7207
▁tamaño	-10.7207
▁arrival	-10.7207
▁ndearnadh	-10.7208
▁Content	-10.7209
▁cúnamh	-10.721
AG	-10.721
▁organic	-10.7213
▁buf	-10.7214
▁incluyendo	-10.7216
List	-10.7216
▁chumhacht	-10.7218
▁mostrar	-10.7219
▁orduithe	-10.722
▁Lights	-10.7221
▁symptoms	-10.7222
▁bharr	-10.7223
ireachta	-10.7224
▁Rio	-10.7226
▁Ltd	-10.7227
▁cama	-10.723
inc	-10.723
▁Press	-10.7232
eld	-10.7236
lucht	-10.7239
▁principales	-10.7244
stelling	-10.7248
▁Jean	-10.7249
ño	-10.725
▁medida	-10.725
42	-10.7257
▁beter	-10.7257
▁coche	-10.7258
▁individuals	-10.7258
▁cumhacht	-10.7261
▁resident	-10.7265
▁brindar	-10.7267
▁campo	-10.727
▁cliente	-10.727
▁ontwerp	-10.7271
km	-10.7272
▁creado	-10.7285
▁playa	-10.7286
site	-10.7287
fen	-10.7287
▁Pas	-10.7288
63	-10.7288
bia	-10.7288
▁doel	-10.729
▁dark	-10.7291
▁vrouw	-10.7293
▁occasion	-10.7293
▁corporate	-10.7294
▁todavía	-10.7294
▁gentle	-10.7294
▁forbairt	-10.7294
▁crecimiento	-10.7294
▁abairt	-10.7294
▁beetje	-10.7294
▁Digital	-10.7295
▁skills	-10.7296
▁Cruz	-10.7296
▁especialmente	-10.7297
▁qualify	-10.7299
▁omgeving	-10.7302
station	-10.7305
▁reality	-10.7305
▁exceed	-10.7307
▁studio	-10.7309
▁Latin	-10.7312
▁Sant	-10.7314
tt	-10.7315
▁firms	-10.7319
▁prachtige	-10.7321
69	-10.7321
EP	-10.7322
▁spelen	-10.733
▁Media	-10.7334
▁Pin	-10.7336
▁disponible	-10.7339
▁alguna	-10.7339
EA	-10.7344
mark	-10.7347
▁sol	-10.7347
rate	-10.7349
kh	-10.7349
83	-10.735
▁spread	-10.7351
inter	-10.7353
2°	-10.7355
▁druk	-10.7356
▁express	-10.7359
vil	-10.736
▁tarde	-10.7364
▁leader	-10.7365
▁expect	-10.7372
▁Tom	-10.738
low	-10.738
▁bewolkt	-10.7381
▁Source	-10.7381
▁tabharfa	-10.7381
▁spiritual	-10.7381
▁domain	-10.7382
▁competition	-10.7383
▁Upper	-10.7384
▁output	-10.7385
ional	-10.7385
oerend	-10.7385
▁River	-10.7387
▁creation	-10.7389
▁llevar	-10.7391
▁client	-10.7393
uri	-10.7397
▁nada	-10.7398
▁boot	-10.7404
▁espera	-10.7405
▁Charm	-10.7405
▁upper	-10.7407
▁Forum	-10.7408
▁playing	-10.7412
▁Cer	-10.7413
Kaart	-10.7416
▁recursos	-10.7416
▁clients	-10.7421
▁puesto	-10.7424
59	-10.7424
▁contenido	-10.7427
▁casos	-10.743
▁Review	-10.743
gin	-10.7432
61	-10.7433
▁containing	-10.7435
▁match	-10.7443
lv	-10.7448
igheid	-10.7448
▁write	-10.7449
▁messages	-10.745
▁origin	-10.745
▁efectos	-10.7452
▁Only	-10.7455
▁citizens	-10.7457
▁attend	-10.7458
▁werkt	-10.7458
▁dog	-10.7467
▁cheangal	-10.7468
▁construcción	-10.7468
▁enactment	-10.7468
▁policies	-10.7468
▁iPod	-10.7468
▁earlier	-10.7468
▁ontwikkeling	-10.7468
▁physician	-10.7469
▁measúnú	-10.7469
▁appearance	-10.7471
▁pure	-10.7474
▁mountain	-10.7474
▁Out	-10.7477
rag	-10.7477
▁Hong	-10.7478
TV	-10.7478
▁jobs	-10.7478
▁locatie	-10.7481
▁liúntas	-10.7482
▁Onder	-10.7483
▁comhaltaí	-10.7483
▁SE	-10.7486
▁vistas	-10.7487
▁poll	-10.7488
▁starting	-10.749
▁hemos	-10.7492
▁poly	-10.7493
HO	-10.7498
waar	-10.7498
▁decided	-10.7502
▁certainly	-10.7503
▁removed	-10.7508
3°	-10.7508
▁za	-10.7509
▁Team	-10.7514
▁organizations	-10.7515
▁visitors	-10.7516
▁seguro	-10.7517
iseanna	-10.7518
iel	-10.752
▁nieuws	-10.7522
isi	-10.7523
▁imagen	-10.7529
▁bedroom	-10.753
▁bhfad	-10.7531
▁Mol	-10.7532
▁leasa	-10.7534
ús	-10.7536
hy	-10.7536
▁edit	-10.7539
raithe	-10.7541
▁updates	-10.7549
zz	-10.7554
▁traffic	-10.7556
▁satellite	-10.7557
▁remember	-10.7557
▁Castle	-10.7557
▁visibility	-10.7557
▁translation	-10.7557
▁igual	-10.7557
▁truth	-10.7557
▁discount	-10.7557
▁quick	-10.7558
▁Quick	-10.7558
▁constitu	-10.7558
▁imirt	-10.7558
▁Short	-10.7558
ani	-10.7559
▁húsáid	-10.756
▁Aid	-10.7561
▁→	-10.7561
NO	-10.7561
▁gewoon	-10.7562
▁luath	-10.7563
▁slot	-10.7563
▁uimhir	-10.7564
▁Ook	-10.7564
▁ionas	-10.7568
▁Monte	-10.7573
▁chargeable	-10.7575
dag	-10.7578
▁.—	-10.7582
▁fol	-10.7582
▁union	-10.7582
▁(2	-10.7584
▁painting	-10.7588
old	-10.7589
Ba	-10.7591
▁bedrooms	-10.7596
▁mp	-10.7597
▁handle	-10.7606
media	-10.7606
▁mensaje	-10.7608
▁fuerza	-10.7609
▁representative	-10.761
▁Provision	-10.761
▁allí	-10.761
lit	-10.7615
bil	-10.7616
nea	-10.7617
▁suit	-10.7623
▁Hi	-10.7624
▁pol	-10.7625
▁dr	-10.7627
▁metres	-10.7629
▁trees	-10.7631
MP	-10.764
▁120	-10.7643
▁died	-10.7644
▁govern	-10.7644
▁Screen	-10.7646
▁PornoLoad	-10.7646
▁gestión	-10.7646
▁rochtain	-10.7646
▁positive	-10.7646
▁situado	-10.7646
▁Bhaile	-10.7646
▁housing	-10.7646
▁relative	-10.7646
▁Replica	-10.7646
▁Standard	-10.7646
▁léinn	-10.7647
▁generar	-10.7648
▁cineálacha	-10.7649
▁funds	-10.765
▁Istanbul	-10.765
▁profits	-10.7653
▁análisis	-10.7658
▁thinks	-10.766
▁necesidades	-10.7661
▁gen	-10.7662
▁goal	-10.7664
acháin	-10.7664
ttle	-10.7664
gl	-10.7665
▁alone	-10.7665
▁casino	-10.7665
▁cabo	-10.7665
000	-10.7665
▁Pass	-10.7669
▁bries	-10.7674
▁prayer	-10.7679
▁components	-10.768
más	-10.768
▁audit	-10.768
CC	-10.7681
▁presente	-10.7683
▁wanted	-10.7686
▁puntos	-10.7686
ants	-10.7688
▁feidhmiú	-10.7691
▁Take	-10.7698
link	-10.7699
▁communication	-10.77
VI	-10.77
itz	-10.7703
▁Program	-10.7705
idades	-10.7709
▁enige	-10.7714
TR	-10.7714
▁discuss	-10.7715
▁bill	-10.7718
▁iarracht	-10.7719
mel	-10.7721
▁continued	-10.7721
▁names	-10.7723
▁launch	-10.7724
▁cáilíochta	-10.7726
HA	-10.7727
▁TR	-10.7727
▁Sale	-10.7729
▁lost	-10.773
▁Ur	-10.773
voc	-10.7736
▁Society	-10.7736
▁acondicionado	-10.7736
▁muirear	-10.7736
▁soláthar	-10.7736
▁residence	-10.7737
té	-10.7737
▁shopping	-10.7737
kant	-10.7738
▁concert	-10.7738
▁thugann	-10.7739
▁tenemos	-10.7739
▁medium	-10.7743
nde	-10.7744
▁patent	-10.7746
▁geval	-10.7746
voer	-10.7748
▁typical	-10.7748
▁áitreabh	-10.7753
▁bike	-10.7756
▁Marina	-10.7759
lay	-10.7759
▁recht	-10.7762
Pro	-10.7767
▁student	-10.777
▁gcuir	-10.7771
▁Following	-10.7772
▁agreed	-10.7773
▁hit	-10.7775
AM	-10.7777
▁seek	-10.7777
▁Vuelos	-10.7779
▁CH	-10.7782
▁cinnte	-10.7784
▁ea	-10.7785
▁component	-10.7786
▁volledige	-10.7789
▁Posted	-10.7789
▁Unit	-10.7792
nl	-10.7793
▁objetivo	-10.7793
▁Regulations	-10.7794
tail	-10.7796
ova	-10.7797
▁understanding	-10.7798
goed	-10.7802
▁Photos	-10.7804
ney	-10.7806
tom	-10.7807
rg	-10.7809
▁resultado	-10.7809
óid	-10.7811
▁Abu	-10.7814
úirt	-10.782
▁pages	-10.7822
▁geweldig	-10.7827
▁Toiletpapier	-10.7827
▁instead	-10.7827
▁British	-10.7827
honduras	-10.7827
▁Medical	-10.7828
▁ndéanfaidh	-10.7828
▁framework	-10.7828
▁dtaca	-10.7828
bet	-10.7829
▁talún	-10.7829
▁1946	-10.783
▁ceadúnas	-10.783
▁continuación	-10.783
▁James	-10.7832
script	-10.7833
you	-10.7834
mand	-10.7834
▁Series	-10.7834
▁abrir	-10.7835
▁bal	-10.7836
▁ISO	-10.7838
▁fuair	-10.7839
▁units	-10.7839
▁plans	-10.7839
▁gcuideachta	-10.7842
▁cargo	-10.7845
▁ear	-10.7847
▁oibriú	-10.7851
tivos	-10.7851
▁plus	-10.7852
▁Training	-10.7853
▁déan	-10.7856
med	-10.786
▁haga	-10.786
dica	-10.7861
serv	-10.7861
▁Bor	-10.7864
▁disco	-10.7866
¡	-10.7867
▁scoil	-10.7868
▁rise	-10.7871
▁Bla	-10.7872
▁male	-10.7874
▁texto	-10.7878
▁cards	-10.7879
▁grande	-10.7882
▁attack	-10.7887
▁usuario	-10.7887
▁accounts	-10.7888
▁sleep	-10.7891
tical	-10.7891
▁tuairim	-10.7893
▁depend	-10.7894
▁Yes	-10.79
▁entrega	-10.79
chur	-10.7903
▁Sam	-10.7903
▁Conas	-10.7904
▁practices	-10.7905
▁cuirfid	-10.7907
▁Ban	-10.791
name	-10.7915
▁mid	-10.7915
▁cri	-10.7916
54	-10.7917
▁buena	-10.7917
▁Brazil	-10.7917
▁wholesale	-10.7918
▁Spanje	-10.7919
▁battery	-10.7919
▁thagann	-10.7919
▁transcribed	-10.7919
▁waterkoker	-10.7919
▁único	-10.7919
▁mbliana	-10.7919
▁criminal	-10.7919
▁Mobile	-10.7919
salvador	-10.792
▁ciontach	-10.7921
▁cutting	-10.7922
▁automatisch	-10.7922
▁1990	-10.7923
▁Tor	-10.7925
▁booking	-10.7926
▁sentido	-10.7926
▁chemical	-10.7926
oo	-10.7927
▁designated	-10.7928
▁dubh	-10.7928
▁Eanáir	-10.7928
▁Mil	-10.7929
▁Rec	-10.793
▁Wo	-10.7931
▁Mijn	-10.7933
ute	-10.7936
plaats	-10.7941
heden	-10.7943
▁tradition	-10.795
▁middel	-10.7951
wij	-10.7955
ático	-10.7957
▁Ac	-10.7961
▁Char	-10.7969
▁Net	-10.7971
▁Head	-10.7972
II	-10.7975
▁mark	-10.7975
licht	-10.7975
▁trabajar	-10.7978
▁fishing	-10.7979
▁movimiento	-10.798
▁práctica	-10.7981
íochtaí	-10.7981
▁Servicio	-10.7981
▁Near	-10.7981
▁faire	-10.7982
▁Ber	-10.7983
▁experiences	-10.7983
▁bot	-10.7984
▁soul	-10.7985
▁indicator	-10.7988
niú	-10.7988
▁bron	-10.7993
▁suppliers	-10.7996
lthough	-10.7998
▁chó	-10.7999
▁programmes	-10.7999
▁Mens	-10.7999
▁Stiúrthóir	-10.8003
vor	-10.8004
▁paint	-10.8004
▁Who	-10.8006
pot	-10.801
▁Because	-10.8011
▁Country	-10.8011
▁infrastructure	-10.8011
▁música	-10.8011
▁teideal	-10.8011
▁smartphone	-10.8012
▁Gebruik	-10.8012
▁Ocean	-10.8012
▁entrance	-10.8012
▁edificio	-10.8014
▁Pri	-10.8014
▁overcast	-10.8015
▁consumption	-10.8016
▁1924	-10.8016
▁Another	-10.8016
▁uses	-10.8018
▁edad	-10.8019
▁thug	-10.802
▁vragen	-10.8021
reg	-10.8023
▁landscape	-10.8023
▁Although	-10.8025
2)	-10.8026
▁spel	-10.8027
▁minic	-10.8028
PC	-10.8029
▁overall	-10.8032
▁prefer	-10.8036
▁ganar	-10.8036
▁lock	-10.8037
▁aange	-10.8039
-7	-10.8044
etting	-10.8046
▁deal	-10.8047
▁puedes	-10.8054
▁vers	-10.8057
úl	-10.8063
ochta	-10.8063
5°	-10.8066
▁grá	-10.8067
nia	-10.8068
▁téarmaí	-10.8069
▁tales	-10.8069
▁díobh	-10.807
▁freagrach	-10.8072
▁Ana	-10.8073
▁amounts	-10.8075
▁apartamento	-10.8075
▁cóip	-10.8075
▁chat	-10.8076
▁metros	-10.8079
▁symbol	-10.8079
▁root	-10.808
▁laws	-10.808
▁markt	-10.8082
▁MO	-10.8082
▁president	-10.8086
▁kl	-10.8087
BA	-10.809
ule	-10.8092
▁calls	-10.8092
EG	-10.8096
▁Change	-10.8097
▁bear	-10.8097
▁ofrecer	-10.8098
▁radi	-10.81
RP	-10.8101
▁comhairle	-10.8102
▁tús	-10.8102
▁Spa	-10.8102
▁ke	-10.8103
-2	-10.8104
▁Bekijk	-10.8105
▁Leictreon	-10.8105
▁demasiado	-10.8105
▁conviction	-10.8105
▁Italië	-10.8105
▁heavy	-10.8105
▁organizaciones	-10.8105
▁mill	-10.8106
gang	-10.8107
ilte	-10.8108
▁beschikbaarheid	-10.8108
▁autor	-10.8109
▁switch	-10.8111
▁Micro	-10.8111
▁primary	-10.8113
▁Féach	-10.8115
▁juiste	-10.8119
▁prima	-10.8122
▁categories	-10.8126
▁disc	-10.8127
kov	-10.813
▁déantóir	-10.8132
▁sociales	-10.8134
rina	-10.8135
▁saying	-10.8136
▁Test	-10.8138
▁draw	-10.814
▁rot	-10.8141
▁val	-10.8144
▁arís	-10.8146
4)	-10.8147
This	-10.8151
mharc	-10.8156
▁Class	-10.8157
ancia	-10.8158
ward	-10.816
naithe	-10.8162
▁adapt	-10.8162
▁rose	-10.8165
▁helps	-10.8171
▁Sus	-10.8176
▁fees	-10.8176
▁duda	-10.8179
▁pacientes	-10.8181
tá	-10.8181
iger	-10.8182
▁articles	-10.8188
▁girl	-10.8189
just	-10.8189
erde	-10.8193
▁permanent	-10.8199
▁Conference	-10.8199
▁ambiente	-10.8199
▁wrong	-10.8199
▁comercio	-10.8199
▁undertaking	-10.8199
▁easier	-10.8199
▁activa	-10.8199
▁Housing	-10.8199
▁jurisdiction	-10.8199
▁siúd	-10.8199
▁luchthaven	-10.8199
▁failure	-10.82
▁Christmas	-10.8201
▁Plaza	-10.8201
▁grupos	-10.8201
▁players	-10.8201
▁Ram	-10.8201
agus	-10.8202
▁gu	-10.8202
▁Ollscoil	-10.8203
▁adoption	-10.8204
▁justice	-10.8207
▁standaard	-10.8207
▁Under	-10.8209
▁Western	-10.8209
ein	-10.8214
chen	-10.8215
▁highest	-10.8218
▁alarm	-10.8218
arna	-10.8224
▁milk	-10.8227
chos	-10.8229
▁Motion	-10.8229
▁té	-10.823
iële	-10.823
▁advanced	-10.8231
▁tourist	-10.8233
quality	-10.8234
vir	-10.8236
▁organ	-10.8242
▁SD	-10.8244
NG	-10.8247
▁dance	-10.8247
▁enorme	-10.8249
▁Non	-10.8253
ánach	-10.8256
▁bol	-10.8257
▁Cl	-10.8259
ox	-10.8259
▁Page	-10.826
íní	-10.8265
▁destination	-10.8268
▁Qui	-10.8269
▁patient	-10.8271
áit	-10.8271
▁guest	-10.8274
▁cáin	-10.8274
▁watches	-10.8275
gado	-10.8275
salla	-10.8279
▁detect	-10.828
ambi	-10.829
aga	-10.829
▁Zhong	-10.8294
▁riaracháin	-10.8294
▁saintréithe	-10.8294
▁conocimiento	-10.8294
▁memory	-10.8294
▁tionchar	-10.8294
▁summary	-10.8294
▁goedkope	-10.8294
▁muerte	-10.8295
▁compensation	-10.8295
▁examination	-10.8295
▁cuairt	-10.8296
▁Valencia	-10.8296
lock	-10.8297
▁luaitear	-10.8297
▁majority	-10.8298
▁1960	-10.8299
▁1925	-10.8299
▁obra	-10.83
▁(4	-10.83
▁Two	-10.8302
▁Limited	-10.8303
▁pie	-10.8303
▁Él	-10.8304
▁bottom	-10.8306
▁Así	-10.8307
ines	-10.8309
gio	-10.8311
▁scríofa	-10.8313
▁Hour	-10.8314
▁cás	-10.8317
mina	-10.8317
▁Once	-10.8322
▁ghairm	-10.8325
▁persoonlijk	-10.8328
Ó	-10.8329
▁cru	-10.8329
▁mg	-10.8329
▁scale	-10.833
MENT	-10.8338
▁hablar	-10.8343
Uimh	-10.8345
ological	-10.8348
▁mejorar	-10.8348
▁fheidhmiú	-10.8349
▁Gre	-10.8349
she	-10.8351
▁decisions	-10.8357
▁Will	-10.8358
▁factors	-10.836
▁organisations	-10.8364
aim	-10.8368
inní	-10.837
real	-10.8371
▁loop	-10.8373
▁mundial	-10.8374
▁alrededor	-10.8374
▁metro	-10.8379
other	-10.8388
▁kunst	-10.839
▁Festival	-10.8391
▁Wanneer	-10.8391
▁iarnróid	-10.8391
▁ioncaim	-10.8391
▁mBallstát	-10.8391
▁Indian	-10.8391
▁thógáil	-10.8391
▁údaraithe	-10.8391
▁bláthanna	-10.8392
▁Railway	-10.8393
▁Líne	-10.8393
▁inspection	-10.8393
▁mhéadú	-10.8393
▁Bridge	-10.8394
airí	-10.8396
▁función	-10.8396
▁Cross	-10.8397
66	-10.8397
Ex	-10.8398
▁dhéantar	-10.8398
▁inspector	-10.8399
▁Cánach	-10.8399
▁Iarscríbhinn	-10.84
▁grianghraf	-10.84
its	-10.8401
▁lit	-10.8402
win	-10.8403
leachta	-10.8403
▁goes	-10.8408
oon	-10.8408
▁worked	-10.8408
▁réasúnach	-10.8411
▁Menu	-10.8414
ainneoi	-10.8417
▁taithí	-10.8418
att	-10.842
Te	-10.8422
▁Mc	-10.8423
▁feidhmeanna	-10.8424
▁rail	-10.8425
▁developing	-10.8433
▁baratos	-10.8434
▁Ré	-10.8435
▁Ironing	-10.8437
rop	-10.8438
▁Moon	-10.8438
PA	-10.8441
Fómh	-10.8442
AB	-10.8452
▁1000	-10.8453
▁industria	-10.8463
▁Precio	-10.8464
nny	-10.8465
▁Links	-10.8466
▁visita	-10.8468
▁propio	-10.8472
ainm	-10.8473
PS	-10.8473
▁indicate	-10.8475
▁invest	-10.8476
bb	-10.848
▁publication	-10.8483
▁85	-10.8484
▁mB	-10.8486
▁Raspberry	-10.8488
▁university	-10.8488
▁cuatro	-10.8488
▁esforza	-10.8488
▁religion	-10.8488
▁alihi	-10.8488
▁compact	-10.8488
▁Film	-10.8488
▁middle	-10.8488
▁protección	-10.8488
▁bright	-10.8488
▁specify	-10.8489
▁administration	-10.8489
▁Stock	-10.8489
▁police	-10.849
▁freedom	-10.8491
▁saothair	-10.8492
▁wonderful	-10.8492
TI	-10.8492
▁ello	-10.8493
eva	-10.8496
▁céim	-10.8497
▁Seating	-10.8497
▁joy	-10.8498
▁huur	-10.85
▁Arm	-10.8501
▁electron	-10.8502
rug	-10.8506
▁planting	-10.8507
shed	-10.8511
▁regards	-10.8515
▁Uw	-10.8515
cept	-10.8515
zer	-10.8516
▁assets	-10.8517
▁Islands	-10.852
▁precipitati	-10.8527
▁miss	-10.8528
▁02	-10.853
▁tablet	-10.853
▁consists	-10.8531
▁importantes	-10.8534
service	-10.8534
▁habla	-10.8535
▁productie	-10.8535
áiste	-10.8536
▁forces	-10.8536
zel	-10.8536
ough	-10.8538
▁fr	-10.854
▁éisteachta	-10.8543
▁Fl	-10.8544
▁iOS	-10.855
gui	-10.8554
és	-10.8557
▁contribution	-10.8567
You	-10.8568
▁participate	-10.8571
▁Studio	-10.8573
▁breed	-10.858
▁Prince	-10.8582
▁Bing	-10.8584
▁proceed	-10.8585
▁Bracelet	-10.8586
▁Culture	-10.8586
▁evaluation	-10.8586
▁september	-10.8586
▁territory	-10.8586
▁twenty	-10.8586
▁presence	-10.8586
▁bracelet	-10.8586
▁steroid	-10.8586
▁región	-10.8586
▁negative	-10.8586
▁campsite	-10.8586
▁rural	-10.8586
▁female	-10.8586
▁ninguna	-10.8586
▁ndéanta	-10.8587
▁stíl	-10.8587
▁participation	-10.8588
tum	-10.8588
▁1996	-10.8588
▁fitness	-10.8589
▁Tele	-10.8589
▁sheirbhísí	-10.859
▁kon	-10.8596
▁peso	-10.8596
deel	-10.8596
▁Baby	-10.8596
▁rudaí	-10.8596
▁achomharc	-10.8598
▁Suppliers	-10.8599
▁doiciméad	-10.8599
▁compared	-10.8608
Ut	-10.8611
▁Bat	-10.8611
▁críoch	-10.8613
▁04	-10.8614
▁pc	-10.8619
mper	-10.8623
▁tram	-10.8623
▁continu	-10.8624
tuvo	-10.8626
▁groep	-10.8627
Shan	-10.863
▁hoogte	-10.8632
ml	-10.8636
▁Blog	-10.8637
▁versie	-10.8638
thin	-10.8639
▁followed	-10.8643
IB	-10.8643
▁alto	-10.8643
▁kracht	-10.8646
▁pieces	-10.8647
stad	-10.8649
▁lage	-10.865
▁cultura	-10.8652
▁labor	-10.8656
▁recommendations	-10.8659
▁Wood	-10.866
▁explain	-10.8666
▁pequeño	-10.8667
▁acid	-10.867
▁tasks	-10.8678
▁lid	-10.8679
▁domhan	-10.8682
▁diet	-10.8682
▁aeropuerto	-10.8685
▁fíneáil	-10.8685
▁draft	-10.8685
▁lasmuigh	-10.8685
▁zeggen	-10.8685
▁sallam	-10.8686
▁relativa	-10.8686
▁interés	-10.8686
▁tuilleadh	-10.8686
▁cabhrú	-10.8686
▁gnéas	-10.8688
▁Category	-10.8688
mpiece	-10.8692
ook	-10.8692
▁Rob	-10.8692
▁Austria	-10.8695
▁comida	-10.8695
▁sla	-10.8696
▁ábhair	-10.8697
▁creating	-10.87
▁sistemas	-10.87
▁600	-10.8705
▁cup	-10.8711
▁eis	-10.8713
▁tábhachtach	-10.8715
▁echter	-10.8719
▁refuse	-10.8721
OP	-10.8721
▁counter	-10.8725
▁released	-10.8725
▁dom	-10.8731
▁bekend	-10.8732
which	-10.8733
rada	-10.874
▁Gro	-10.8745
lav	-10.8749
▁pá	-10.8752
▁estudiantes	-10.8752
▁Uachtarán	-10.8754
▁houses	-10.8759
cc	-10.8761
▁necesidad	-10.8768
▁difference	-10.8769
▁úsáide	-10.877
▁mail	-10.8772
like	-10.8775
▁friend	-10.8776
ides	-10.8776
▁PA	-10.878
▁stamp	-10.8781
▁Goedkope	-10.8785
▁Accommodation	-10.8785
▁Metropolitan	-10.8785
▁Saorstát	-10.8785
▁alojamiento	-10.8785
▁diferencia	-10.8785
▁economy	-10.8785
▁futuro	-10.8785
▁journey	-10.8785
▁segunda	-10.8785
▁Nuestro	-10.8785
▁liquid	-10.8785
▁cycle	-10.8785
▁siglo	-10.8785
▁ceaptha	-10.8785
argentina	-10.8785
▁mBord	-10.8785
▁deiridh	-10.8786
▁sustainable	-10.8786
▁1963	-10.8787
isibilidad	-10.8787
▁strip	-10.8788
▁lár	-10.879
▁Universidad	-10.8791
▁chead	-10.8791
▁aanbiedingen	-10.8792
▁fabricante	-10.8793
▁sraith	-10.8794
▁varias	-10.8795
▁réiteach	-10.8796
▁sole	-10.8798
▁baja	-10.8803
▁chu	-10.8803
▁06	-10.8803
▁Hout	-10.8805
▁cara	-10.8805
gadh	-10.8808
▁Esp	-10.881
▁ullmhú	-10.8811
▁generation	-10.8811
▁locales	-10.8815
CP	-10.8815
▁gram	-10.882
▁affected	-10.8821
▁stem	-10.8821
▁delivered	-10.8822
▁costas	-10.8823
▁Var	-10.8824
▁cuales	-10.8826
éid	-10.8831
ben	-10.8835
clus	-10.884
4°	-10.8845
▁Mí	-10.885
▁cars	-10.8853
▁busca	-10.8855
▁Ol	-10.8856
▁oifige	-10.8862
▁Chuir	-10.8864
RS	-10.8866
▁opera	-10.8866
▁fotos	-10.887
▁ning	-10.887
-20	-10.8871
▁Scéim	-10.8872
▁materiales	-10.8873
▁requested	-10.8875
▁considers	-10.8876
anti	-10.8878
▁lange	-10.8878
▁named	-10.888
1)	-10.8881
▁pl	-10.8881
▁Ste	-10.8883
komen	-10.8883
▁mhaoin	-10.8884
▁Abogados	-10.8886
▁criteria	-10.8886
▁mañana	-10.8886
▁Príomh	-10.8886
▁ainmnithe	-10.8886
▁cuanto	-10.8886
▁partnership	-10.8887
▁approval	-10.8887
▁Cookies	-10.8887
▁Pedro	-10.8887
▁permission	-10.8887
▁kmh	-10.8889
▁Guangdong	-10.8891
▁bijvoorbeeld	-10.8892
▁athbhreithniú	-10.8892
▁announced	-10.8893
▁semi	-10.8895
▁solve	-10.8896
▁iasacht	-10.8897
▁rialta	-10.8897
SC	-10.8898
▁fecha	-10.8898
▁(18	-10.89
▁previously	-10.8901
▁Oven	-10.8904
▁materiaal	-10.8904
▁gene	-10.8905
▁volgens	-10.8906
▁vía	-10.8908
▁paso	-10.891
▁chance	-10.8916
teken	-10.8917
▁LA	-10.8918
▁Marine	-10.8922
▁modelo	-10.8928
▁Have	-10.8929
▁lean	-10.893
dú	-10.8932
▁Gaeltacht	-10.8932
ables	-10.8933
pra	-10.8936
▁classes	-10.8936
▁Berg	-10.8937
rust	-10.894
▁Classic	-10.894
▁farm	-10.8942
▁cambiar	-10.8946
▁Corr	-10.8946
▁68	-10.8947
▁11.	-10.8949
▁cháin	-10.8949
▁leanúnach	-10.8955
chair	-10.8963
▁señal	-10.8967
▁pattern	-10.8976
▁obligations	-10.8976
▁lugares	-10.8981
▁slow	-10.8982
▁única	-10.8985
▁bath	-10.8986
ç	-10.8987
▁transmit	-10.8988
▁Koelkast	-10.8988
▁kiezen	-10.8988
▁Táirgí	-10.8988
▁Welcome	-10.8988
▁beauty	-10.8988
▁inglés	-10.8988
▁aparece	-10.8988
▁Before	-10.8988
▁liability	-10.8989
▁verkoop	-10.8989
gemene	-10.8989
▁foirm	-10.8989
▁transferred	-10.899
▁Mount	-10.899
▁Body	-10.899
▁Articles	-10.899
▁acero	-10.899
▁07	-10.899
▁›	-10.8991
ificado	-10.8991
▁default	-10.8991
▁1970	-10.8992
▁directamente	-10.8992
iones	-10.8993
▁cool	-10.8994
▁Guide	-10.8995
▁verwijderen	-10.8995
▁flower	-10.8996
▁Meeting	-10.8997
▁automatically	-10.8998
▁ioncam	-10.8998
▁completo	-10.8998
▁science	-10.9002
▁lorg	-10.9002
▁Hol	-10.9004
▁stair	-10.9005
▁MS	-10.9007
LED	-10.9007
▁brengen	-10.9008
▁leabhar	-10.901
loos	-10.9011
▁notification	-10.9011
▁Av	-10.9012
▁feit	-10.9012
▁sopla	-10.9013
wing	-10.9016
▁tré	-10.9017
▁fada	-10.9018
4-7	-10.9021
gger	-10.9023
▁friendly	-10.9025
▁baile	-10.9025
▁detail	-10.9025
▁wire	-10.9026
▁reg	-10.9026
▁forum	-10.9035
GE	-10.9036
▁element	-10.9036
aoin	-10.9036
▁medidas	-10.9041
▁Chu	-10.9043
mate	-10.9049
▁languages	-10.9052
▁promot	-10.9052
▁feed	-10.9054
sach	-10.906
▁99	-10.9064
▁alter	-10.9064
long	-10.9065
either	-10.9065
radh	-10.9066
rak	-10.9066
▁license	-10.9069
▁appoint	-10.9069
Se	-10.9072
92	-10.9077
▁drop	-10.9079
▁fix	-10.9082
ngach	-10.9084
▁cearta	-10.9085
▁ngair	-10.9086
▁Dun	-10.9088
abeltelevisie	-10.9091
▁Ballstát	-10.9091
▁Enterprise	-10.9091
▁corporation	-10.9091
▁medicine	-10.9091
▁sombrero	-10.9091
▁universal	-10.9091
▁forbartha	-10.9091
▁Trump	-10.9091
▁aquellos	-10.9091
▁bottle	-10.9092
▁cosaint	-10.9092
▁seguir	-10.9092
▁tástála	-10.9092
▁principles	-10.9093
choisc	-10.9095
▁Easy	-10.9096
▁Antonio	-10.9097
▁Hermes	-10.9098
▁bereiken	-10.9098
point	-10.9099
▁profit	-10.91
FA	-10.9101
▁clothing	-10.9105
abhair	-10.911
▁gnáth	-10.9115
▁boat	-10.9117
▁Kong	-10.9117
remos	-10.912
▁Point	-10.912
▁tweede	-10.9121
graph	-10.9121
▁performed	-10.9122
▁degree	-10.9122
▁Thanks	-10.9124
▁sugar	-10.913
mhéid	-10.913
inos	-10.913
▁wooden	-10.9137
tivo	-10.9139
▁Fh	-10.9139
eoirí	-10.9146
▁teaching	-10.9146
▁artículos	-10.9147
▁ionstraim	-10.9147
rich	-10.9152
▁Step	-10.9152
ography	-10.9155
ego	-10.9161
rra	-10.9164
tory	-10.9166
▁sources	-10.9166
matic	-10.9166
▁expand	-10.9167
▁secret	-10.9167
▁west	-10.9167
oid	-10.917
▁salt	-10.9179
▁páirt	-10.9179
ically	-10.9179
lta	-10.9181
aat	-10.9183
▁Applications	-10.9183
ología	-10.9185
▁segundo	-10.9187
▁escuela	-10.9187
▁effort	-10.9189
endo	-10.919
▁requirement	-10.9194
▁Strijkijzer	-10.9195
▁mhalairt	-10.9195
▁Square	-10.9195
▁éxito	-10.9195
▁iPad	-10.9195
▁cinco	-10.9195
▁wallpaper	-10.9195
▁chinntiú	-10.9195
▁Employment	-10.9195
▁Grupo	-10.9195
▁Ahora	-10.9195
ugann	-10.9196
▁Florida	-10.9196
▁Berlin	-10.9196
▁iarratais	-10.9196
bank	-10.9196
▁Secretary	-10.9196
▁preparation	-10.9197
oost	-10.9197
▁toegankelijk	-10.9198
▁grootste	-10.9198
▁verdad	-10.9198
▁amigos	-10.92
▁wheel	-10.92
aña	-10.9202
▁assigned	-10.9202
▁éasca	-10.9202
Ro	-10.9206
▁Contract	-10.9206
▁Comisión	-10.9208
ska	-10.9209
▁Commissioner	-10.9211
lang	-10.9211
▁DLL	-10.9211
400	-10.9215
▁bridge	-10.9217
▁realmente	-10.9217
▁seeds	-10.9218
▁Alt	-10.9225
▁gceann	-10.9228
0°	-10.9229
▁buildings	-10.9231
▁ob	-10.9232
▁Fish	-10.9234
▁bl	-10.9234
iana	-10.9244
Leasú	-10.9248
▁IS	-10.9249
airt	-10.925
anfaidh	-10.9256
▁(1),	-10.9257
▁medios	-10.926
play	-10.9262
▁respecto	-10.9276
▁promotion	-10.9276
▁discharge	-10.9278
▁Rose	-10.9279
▁Mill	-10.9281
▁junio	-10.9281
▁remains	-10.9282
▁gebouw	-10.9282
ux	-10.9283
84	-10.9284
▁informe	-10.9285
▁presidente	-10.9285
▁Mer	-10.9287
▁crime	-10.9288
CT	-10.9288
▁tab	-10.9297
▁slight	-10.9298
▁€1	-10.9298
▁desire	-10.93
▁Bealtaine	-10.93
▁Poiblí	-10.93
▁communities	-10.93
▁doiciméid	-10.93
▁población	-10.93
▁Agriculture	-10.93
▁Nollaig	-10.93
▁beyond	-10.93
▁Descripción	-10.93
ify	-10.9301
▁Íosa	-10.9301
▁fiesta	-10.9301
▁oficina	-10.9302
▁shlí	-10.9302
▁possession	-10.9302
▁minister	-10.9303
ily	-10.9304
▁Zoek	-10.9305
▁verdiepingen	-10.9307
▁Ankara	-10.9307
▁soms	-10.9307
▁TCDD	-10.9307
▁queda	-10.9308
▁dining	-10.9308
▁openen	-10.9311
▁proyectos	-10.9313
▁lease	-10.9315
▁niveau	-10.9316
▁parquet	-10.9316
▁Guang	-10.9317
▁musical	-10.9317
▁gcu	-10.9321
cé	-10.9323
▁prove	-10.9324
8°	-10.9324
▁solid	-10.9326
▁gasten	-10.9333
▁hall	-10.9335
▁clearly	-10.934
▁éag	-10.9341
▁ghlac	-10.9341
▁commission	-10.9342
▁Him	-10.9342
▁Bur	-10.9343
▁award	-10.9345
▁conocer	-10.9346
▁unto	-10.9351
▁08	-10.9351
imiento	-10.9354
programma	-10.9355
▁Vel	-10.9356
▁coches	-10.9357
IF	-10.9358
▁constitute	-10.9362
▁mooie	-10.9366
▁000	-10.9367
▁waarin	-10.9373
▁“(	-10.9375
cap	-10.9378
▁Feabh	-10.9383
▁terminal	-10.9384
▁doble	-10.9384
▁planet	-10.9387
born	-10.939
▁controle	-10.9394
ija	-10.9395
scribe	-10.9397
▁Clárú	-10.9397
▁Ali	-10.94
▁wit	-10.94
pass	-10.9402
▁disfrutar	-10.9403
▁experts	-10.9403
esta	-10.9403
▁principle	-10.9405
▁palabra	-10.9405
▁Mundial	-10.9407
▁agencies	-10.9407
▁cámara	-10.9407
▁Amazon	-10.9407
▁Decision	-10.9407
▁Located	-10.9407
▁Nuevo	-10.9407
▁lokale	-10.9407
▁Catholic	-10.9407
▁packaging	-10.9407
▁Contae	-10.9407
▁bliantúil	-10.9407
▁Civil	-10.9407
▁Split	-10.9407
▁Nuestra	-10.9408
▁visible	-10.9408
▁Income	-10.9408
▁Express	-10.9408
▁leanaí	-10.9409
▁cambios	-10.941
▁married	-10.9411
new	-10.9412
▁RA	-10.9413
▁trabajadores	-10.9413
▁overzicht	-10.9415
▁maanden	-10.9421
taíonn	-10.9421
▁Playa	-10.9424
agra	-10.9425
▁staal	-10.9427
▁updated	-10.9428
▁input	-10.9431
▁supported	-10.9434
▁viene	-10.9435
▁obtained	-10.9437
▁Europese	-10.9444
kers	-10.9447
▁niveles	-10.9447
▁Zijn	-10.9451
▁Player	-10.9453
ew	-10.9453
hang	-10.9455
well	-10.9458
Ho	-10.9461
52	-10.9465
eller	-10.9465
machine	-10.9465
▁gcomh	-10.9471
▁piel	-10.9471
thair	-10.9472
▁tema	-10.9472
tán	-10.9473
▁pasar	-10.9475
▁stations	-10.9476
7%	-10.948
▁kit	-10.9481
▁artikel	-10.9487
ensuring	-10.9488
▁artists	-10.9494
▁Río	-10.9495
▁suggest	-10.9495
inas	-10.9501
fí	-10.9502
▁níl	-10.9503
ika	-10.951
▁accident	-10.9514
hether	-10.9514
▁Galaxy	-10.9514
▁Property	-10.9514
▁religious	-10.9514
▁teagmháil	-10.9514
▁teléfono	-10.9514
▁guerra	-10.9514
▁survey	-10.9514
▁daughter	-10.9514
▁cabeza	-10.9514
▁duidelijk	-10.9514
▁chaitheamh	-10.9514
▁Outdoor	-10.9515
▁húdaráis	-10.9515
▁beschikt	-10.9515
▁referencia	-10.9515
nica	-10.9515
▁aplicaciones	-10.9515
▁vraag	-10.9517
▁escape	-10.9517
▁quiet	-10.9518
▁Financial	-10.9518
▁Ketone	-10.952
▁Mis	-10.9522
▁integrated	-10.9524
▁dT	-10.9524
▁páirtí	-10.9526
/4	-10.9526
oord	-10.9527
▁faide	-10.953
Northern	-10.9534
ians	-10.9537
▁seat	-10.9539
uin	-10.9541
▁internationale	-10.9542
▁raon	-10.9544
▁presentation	-10.9545
BC	-10.9545
▁tendrá	-10.9547
lado	-10.9551
▁values	-10.9551
▁padres	-10.9555
▁scrúdú	-10.9556
▁parece	-10.9558
▁opened	-10.9563
▁finally	-10.9565
▁reached	-10.9566
▁usa	-10.9571
▁Zona	-10.9574
▁Ser	-10.9574
▁charges	-10.9577
▁Mura	-10.9582
▁Child	-10.9582
-4	-10.9584
▁functional	-10.9586
icia	-10.9587
▁Cala	-10.9588
▁ban	-10.9589
iff	-10.9589
▁Tile	-10.9589
▁channels	-10.9589
organ	-10.9592
iúcháin	-10.9594
▁nasc	-10.9596
mó	-10.9597
▁convenient	-10.9597
▁partes	-10.9601
▁rode	-10.9602
▁Privacy	-10.9602
▁wait	-10.9603
warmt	-10.9604
▁socrú	-10.9605
▁Fan	-10.9606
town	-10.9607
▁ghnó	-10.9611
naam	-10.9612
7-11	-10.9613
▁movies	-10.9613
▁Bell	-10.9617
He	-10.962
▁continues	-10.962
body	-10.9621
▁Microwave	-10.9623
▁económico	-10.9623
▁removal	-10.9623
▁difícil	-10.9623
▁Galway	-10.9623
▁mechanical	-10.9623
▁monument	-10.9623
▁fhoráil	-10.9623
▁betekent	-10.9623
▁Jacob	-10.9623
▁password	-10.9623
▁Animal	-10.9623
▁dispone	-10.9623
▁interface	-10.9623
▁Gratis	-10.9623
▁Register	-10.9624
▁sunset	-10.9624
▁aircraft	-10.9624
▁fra	-10.9624
▁Comments	-10.9624
▁libro	-10.9625
▁clave	-10.9627
▁equivalent	-10.9627
▁objective	-10.9628
▁tratar	-10.9628
▁café	-10.963
▁intention	-10.963
▁transportation	-10.9631
▁Official	-10.9631
▁Gen	-10.9633
▁Ö	-10.9636
▁69	-10.9637
▁ley	-10.9638
▁Kit	-10.9644
▁Sim	-10.9645
▁Tras	-10.9645
iom	-10.9647
▁Hy	-10.9649
▁Alarm	-10.9651
▁seem	-10.9653
▁rátaí	-10.9654
bido	-10.9655
▁beheer	-10.9655
alta	-10.9657
mag	-10.9659
▁Reg	-10.966
▁tuairisc	-10.9664
▁kosten	-10.9664
Un	-10.9665
▁neg	-10.9672
uer	-10.9675
key	-10.9676
▁Mas	-10.9677
py	-10.9677
agh	-10.9686
gaan	-10.9687
▁trying	-10.9687
OT	-10.9688
▁Bus	-10.9696
▁aspects	-10.9699
▁relax	-10.9703
▁beneficios	-10.9707
▁suffer	-10.9708
▁Waar	-10.9712
▁conflict	-10.9714
▁bezoek	-10.9714
▁eran	-10.9715
▁freagra	-10.9716
▁enfermedad	-10.9716
▁CR	-10.9717
▁Isla	-10.972
stat	-10.9721
▁Kha	-10.9722
▁Cup	-10.9724
▁pod	-10.9724
▁aois	-10.9727
iam	-10.9727
ila	-10.9728
▁kennis	-10.9733
▁Artículo	-10.9733
▁Sláinte	-10.9733
▁bijzonder	-10.9733
▁conferred	-10.9733
▁manufacturing	-10.9733
▁recognition	-10.9733
▁uitgerust	-10.9733
▁Mountain	-10.9733
▁Address	-10.9733
▁enforcement	-10.9734
ivity	-10.9734
▁belangrijkste	-10.9734
▁Carpet	-10.9735
▁Klik	-10.9735
▁boost	-10.9736
▁gníomhú	-10.9737
zet	-10.9738
▁diseases	-10.9739
▁muziek	-10.9739
▁reizen	-10.9741
NT	-10.9741
▁salida	-10.9741
▁employer	-10.9742
▁scene	-10.9743
▁hostel	-10.9747
▁AC	-10.9748
▁verhuur	-10.9748
▁caja	-10.9749
▁eisiúint	-10.975
▁regularly	-10.9752
▁independiente	-10.9752
▁Lady	-10.9752
57	-10.9753
▁cree	-10.9756
▁Wild	-10.9763
▁teanga	-10.9769
▁pelo	-10.977
▁explore	-10.9774
▁Lake	-10.9774
RM	-10.9775
▁eventos	-10.9777
▁AG	-10.9777
▁dezelfde	-10.9779
▁Samh	-10.9782
FC	-10.9782
▁sería	-10.9785
▁pla	-10.9788
▁Total	-10.9789
▁Customer	-10.9791
▁aware	-10.9791
▁COM	-10.9792
▁objects	-10.9799
read	-10.98
▁Entre	-10.9802
▁pequeñas	-10.9804
ráid	-10.9808
81	-10.9812
▁Cuid	-10.9815
▁burn	-10.9816
ava	-10.9818
▁Far	-10.982
illas	-10.9824
tz	-10.9827
▁Kar	-10.983
▁rol	-10.9839
93	-10.984
▁Bain	-10.9843
▁klik	-10.9844
▁Jersey	-10.9844
▁Oideachais	-10.9844
▁powder	-10.9844
▁probably	-10.9844
▁Breakfast	-10.9844
colombia	-10.9844
▁domestic	-10.9844
LC	-10.9844
▁infheistíochta	-10.9844
▁cuma	-10.9845
▁Beschrijving	-10.9845
▁wild	-10.9845
▁oifigiúil	-10.9845
▁Planning	-10.9846
▁sentence	-10.9846
▁Alquiler	-10.9847
▁tionscadal	-10.985
▁edition	-10.985
▁seal	-10.985
▁qualified	-10.9851
under	-10.9852
▁Éirinn	-10.9854
▁cíos	-10.9855
▁meat	-10.9856
▁Producten	-10.9856
▁Manufacturer	-10.9857
▁Padre	-10.9857
achán	-10.9858
▁controller	-10.986
▁task	-10.9861
ace	-10.9861
▁zorgen	-10.9864
▁fostaíochta	-10.9865
▁leather	-10.9866
▁soiléir	-10.987
nel	-10.987
habit	-10.9871
▁porno	-10.9872
▁anyone	-10.988
▁minor	-10.9885
▁chi	-10.9887
fil	-10.989
▁Marco	-10.9891
▁provider	-10.9892
▁Log	-10.9893
▁relations	-10.9895
nload	-10.9896
▁EP	-10.9899
▁iron	-10.9899
▁calle	-10.9902
▁consumer	-10.9904
▁gracias	-10.9907
▁3-	-10.9908
▁ruimte	-10.9909
▁zoeken	-10.9909
waarde	-10.9912
spel	-10.9916
▁transporte	-10.9923
▁Kon	-10.9923
wan	-10.9928
hood	-10.9929
▁promo	-10.9934
▁layer	-10.9938
▁wet	-10.9939
▁propiedad	-10.9939
▁actividad	-10.994
▁collect	-10.9941
cker	-10.9942
▁update	-10.9948
▁vet	-10.9951
▁considera	-10.9952
▁eacnamaíoch	-10.9956
▁Assembly	-10.9956
▁Chonradh	-10.9956
▁Messenger	-10.9956
▁blianta	-10.9956
▁estrategia	-10.9956
▁flexible	-10.9956
▁suficiente	-10.9956
▁Bhoird	-10.9956
▁husband	-10.9956
▁méadú	-10.9956
▁Clothes	-10.9956
▁accurate	-10.9956
▁ngníomh	-10.9957
▁Strijk	-10.9957
▁Electronic	-10.9957
▁testing	-10.9958
▁Staff	-10.9958
▁thread	-10.9958
▁Construction	-10.9958
▁acciones	-10.9958
▁changed	-10.9959
▁inar	-10.9959
▁commitment	-10.996
shop	-10.996
▁Account	-10.996
▁importance	-10.996
▁falta	-10.9961
▁●	-10.9962
▁vivo	-10.9962
▁Smart	-10.9962
▁driving	-10.9963
▁déag	-10.9963
▁krijgt	-10.9963
▁buen	-10.9964
▁Train	-10.9965
▁activiteiten	-10.9965
▁initiative	-10.9967
fish	-10.9968
▁movie	-10.9968
▁bekijken	-10.9969
▁fáth	-10.9972
ega	-10.9972
▁cita	-10.9973
▁tí	-10.9974
▁combat	-10.9975
▁Louis	-10.9978
▁cash	-10.9983
▁ellas	-10.9983
WW	-10.9987
mica	-10.9989
▁drawing	-10.9993
▁laag	-10.9993
▁stellen	-10.9993
lag	-10.9994
▁dearg	-10.9996
ní	-10.9998
kaart	-10.9999
▁sitios	-11
oibr	-11.0006
down	-11.0008
rain	-11.0011
load	-11.0015
/2013	-11.0015
▁turned	-11.0017
Check	-11.0018
▁moneys	-11.002
riz	-11.002
▁qua	-11.0021
▁completa	-11.0022
▁Kra	-11.0022
comp	-11.0022
contained	-11.0023
▁éisteacht	-11.0025
get	-11.0026
▁shared	-11.0029
Dong	-11.0029
▁zie	-11.0033
▁planta	-11.0034
luais	-11.0035
lement	-11.0037
▁causes	-11.0038
:1	-11.0039
▁Lighting	-11.0041
▁kun	-11.0043
▁Age	-11.0048
▁fola	-11.0048
▁arrive	-11.0049
▁toepassing	-11.0056
▁persoon	-11.0057
▁9.	-11.0057
zan	-11.006
▁Consult	-11.0063
icos	-11.0066
OC	-11.0068
▁specialist	-11.0069
▁Bro	-11.007
▁Foreign	-11.007
▁Heritage	-11.007
▁Iarnróid	-11.007
▁Louboutin	-11.007
▁aforesaid	-11.007
▁tomorrow	-11.007
ā	-11.007
▁accessories	-11.007
▁eligible	-11.007
▁background	-11.007
▁seems	-11.0071
▁comunicación	-11.0071
▁Copy	-11.0072
▁1989	-11.0073
▁rising	-11.0073
▁thugtar	-11.0073
bian	-11.0074
▁OEM	-11.0074
▁Universal	-11.0074
▁Front	-11.0076
▁Oost	-11.0076
▁Winter	-11.0076
▁obligation	-11.0084
▁Meán	-11.0085
OD	-11.0085
▁Jacket	-11.0085
▁Application	-11.0089
▁Band	-11.0091
▁recently	-11.0091
▁merk	-11.0094
▁carbon	-11.0096
▁incluido	-11.0098
▁cream	-11.0099
líon	-11.01
nda	-11.01
▁Mad	-11.01
▁internacionales	-11.0103
▁accounting	-11.0109
▁struggle	-11.0112
▁markets	-11.0112
tis	-11.0113
▁substances	-11.0113
6%	-11.0114
▁Barr	-11.0116
▁hout	-11.012
miss	-11.0125
SP	-11.013
▁clo	-11.0131
Ireland	-11.0133
▁comments	-11.0134
▁strap	-11.0134
centrum	-11.0134
▁obs	-11.0135
▁NO	-11.0135
▁Clo	-11.0136
▁limits	-11.0137
exe	-11.0138
chan	-11.0138
▁saber	-11.0143
leiding	-11.0144
▁llama	-11.0145
▁closed	-11.0147
▁solar	-11.0148
▁scar	-11.0148
▁spin	-11.0149
1%	-11.0155
Ão	-11.0159
▁sand	-11.0161
▁contrast	-11.0161
▁elegant	-11.0163
▁opciones	-11.0163
▁Choel	-11.0164
recht	-11.0164
ías	-11.0164
▁63	-11.0166
Allahu	-11.0173
▁Palm	-11.0177
▁thank	-11.018
▁prison	-11.0182
▁aanwezig	-11.0184
▁Curacao	-11.0185
▁advertising	-11.0185
▁cúraim	-11.0185
▁freastal	-11.0185
▁superficie	-11.0185
▁transparent	-11.0185
▁nóiméad	-11.0185
▁soluciones	-11.0185
▁uniform	-11.0185
▁gevolg	-11.0185
▁excelente	-11.0185
▁retain	-11.0185
▁cam	-11.0185
▁Derecho	-11.0185
▁Thailand	-11.0186
▁gnéithe	-11.0186
▁Transfer	-11.0186
▁destino	-11.0186
▁córais	-11.0187
▁Durante	-11.0187
▁existence	-11.0188
▁department	-11.0188
▁1933	-11.0189
▁percent	-11.0189
▁socio	-11.019
▁wonder	-11.0191
▁EL	-11.0194
▁dearadh	-11.0198
▁Sports	-11.0198
iarr	-11.0198
▁profesionales	-11.02
▁dispositivo	-11.02
▁Apartamento	-11.0203
▁Nice	-11.0205
róidh	-11.0206
▁Italia	-11.0206
▁eight	-11.0206
▁Brussels	-11.0208
mid	-11.0209
onstru	-11.021
▁scéal	-11.0214
▁dicho	-11.0215
▁Alex	-11.0219
cat	-11.0219
▁volver	-11.0222
aar	-11.0223
▁settings	-11.0223
adora	-11.0224
▁flu	-11.0224
▁Ath	-11.0226
▁Guia	-11.0226
▁(10)	-11.0228
ks	-11.0233
▁Provisions	-11.0233
▁exceptional	-11.0238
5,	-11.0248
ghníomh	-11.0249
▁110	-11.025
▁DC	-11.0252
lands	-11.0253
night	-11.0255
▁Environment	-11.0256
▁Sand	-11.0259
▁Lawn	-11.0262
rant	-11.0268
▁comentarios	-11.0268
▁elementos	-11.0269
▁User	-11.0271
▁recover	-11.0271
master	-11.0271
▁Stad	-11.0277
chomh	-11.0278
hua	-11.0284
▁62	-11.0285
▁increasing	-11.0291
AST	-11.0292
▁classic	-11.0294
quí	-11.0297
▁SOLAS	-11.0301
▁tissue	-11.0301
▁Indonesia	-11.0301
▁Miguel	-11.0301
▁República	-11.0301
▁Welfare	-11.0301
▁conjunto	-11.0301
▁crystal	-11.0301
▁fheiceáil	-11.0301
▁reliable	-11.0301
▁Gharda	-11.0301
▁honor	-11.0301
▁bonus	-11.0301
▁Sevilla	-11.0302
▁rubber	-11.0302
▁moderate	-11.0302
▁scriosadh	-11.0302
▁común	-11.0303
▁sums	-11.0303
▁Meitheamh	-11.0304
ski	-11.0305
▁tests	-11.0306
▁vertical	-11.0307
▁weekend	-11.0307
▁efforts	-11.0308
▁Mod	-11.0311
▁waarde	-11.0311
▁Bas	-11.0317
▁bestaat	-11.0317
▁east	-11.0323
▁Zee	-11.0323
▁numbers	-11.0324
▁tagairtí	-11.0325
▁Fr	-11.0326
▁PH	-11.0331
56	-11.0334
▁belangrijke	-11.0334
▁bevat	-11.0334
chas	-11.0335
▁introduced	-11.0335
▁ticket	-11.0336
llow	-11.0336
:4	-11.0336
▁Tourism	-11.0338
▁Ham	-11.0339
▁hacen	-11.0342
▁Bos	-11.0346
▁canal	-11.0352
current	-11.0355
▁dingen	-11.0356
▁chart	-11.0366
uring	-11.0368
▁ciudades	-11.0368
leven	-11.0369
▁mineral	-11.037
nam	-11.037
▁Come	-11.0373
dam	-11.0377
▁fil	-11.0377
▁Race	-11.0378
▁George	-11.0378
▁disk	-11.0378
▁Sala	-11.038
▁Todos	-11.0382
achtaí	-11.0382
▁familiar	-11.0383
▁formato	-11.0383
▁Suites	-11.0384
▁rod	-11.0386
▁pen	-11.0386
ates	-11.0387
▁bhféadfa	-11.0387
erende	-11.0388
78	-11.0391
▁Drive	-11.0395
▁Dar	-11.0395
▁180	-11.0396
bert	-11.0397
▁cease	-11.0398
unque	-11.0398
▁advise	-11.0398
▁pregunta	-11.0404
▁aroma	-11.0407
▁gui	-11.0409
bestanden	-11.041
▁soort	-11.0411
▁incluyen	-11.0412
▁Companies	-11.0419
▁harbour	-11.0419
▁humedad	-11.0419
▁octubre	-11.0419
▁opnieuw	-11.0419
▁rocío	-11.0419
▁rápido	-11.0419
▁luxurious	-11.0419
▁sweet	-11.0419
▁heaven	-11.0419
▁stylish	-11.0419
▁deimhin	-11.0419
▁verde	-11.042
rum	-11.042
▁hogar	-11.042
▁approximately	-11.042
▁Compare	-11.0421
▁Investment	-11.0421
▁educación	-11.0421
▁cúis	-11.0423
▁reported	-11.0424
▁1995	-11.0424
▁Mid	-11.0425
anas	-11.0426
▁dolor	-11.0426
▁huren	-11.0428
▁equipos	-11.0429
bie	-11.0429
▁Rental	-11.0435
▁woorden	-11.0435
▁versión	-11.0438
▁Bide	-11.0439
zie	-11.0439
▁efecto	-11.044
▁stable	-11.0441
▁claims	-11.0442
toria	-11.0443
Those	-11.0445
▁scan	-11.0449
▁zone	-11.0452
▁foundation	-11.0457
▁states	-11.0459
▁kinds	-11.0459
▁Clár	-11.0459
jas	-11.0459
cut	-11.046
aties	-11.046
▁acción	-11.0463
▁recorded	-11.0464
rtha	-11.0465
mul	-11.0469
cum	-11.0473
itas	-11.0474
▁arrangements	-11.0475
puesto	-11.0476
▁Cro	-11.0476
▁debería	-11.048
▁Med	-11.048
▁características	-11.048
▁Pr	-11.0481
▁cheist	-11.0482
right	-11.0487
▁Juli	-11.0488
lov	-11.0489
▁Solar	-11.0489
▁Low	-11.0489
▁Stra	-11.0492
▁láimh	-11.0494
▁agricultural	-11.0499
▁shoes	-11.0501
▁weak	-11.0501
▁belangrijk	-11.0503
▁frith	-11.0503
hot	-11.0505
▁drugs	-11.0507
▁homes	-11.0507
▁agency	-11.0511
lijn	-11.0513
-15	-11.0513
▁stoc	-11.0514
▁handel	-11.0515
▁rialaithe	-11.0516
▁breathn	-11.0518
▁played	-11.0519
▁kr	-11.0523
▁officers	-11.0523
(4)	-11.0529
▁Reserva	-11.0529
▁Has	-11.0531
▁portion	-11.0532
▁UV	-11.0533
▁Market	-11.0534
aimseartha	-11.0538
▁vind	-11.0538
▁Technical	-11.0538
▁marriage	-11.0538
▁película	-11.0538
▁Luchthaven	-11.0538
▁íseal	-11.0538
▁immun	-11.0538
▁brown	-11.0538
▁stories	-11.0538
▁zult	-11.0538
▁tÚdarás	-11.0539
▁Panama	-11.0539
▁1992	-11.054
▁vital	-11.0541
▁leer	-11.0542
▁liostaithe	-11.0542
▁Feabhra	-11.0543
▁billion	-11.0544
▁AL	-11.0544
▁gnótha	-11.0546
▁thart	-11.0546
▁machinery	-11.0546
▁dleacht	-11.0546
▁Rinne	-11.0549
yn	-11.055
▁accompanied	-11.055
▁Sex	-11.0551
Pr	-11.0553
▁réitigh	-11.0556
ND	-11.0557
▁IM	-11.0563
▁onderhouden	-11.0564
▁Dlí	-11.0565
ternal	-11.0566
▁fuente	-11.0566
uma	-11.0567
tima	-11.057
▁tren	-11.057
▁arising	-11.0573
▁looks	-11.0578
▁Job	-11.0578
▁66	-11.0579
▁score	-11.0582
▁Iris	-11.0583
▁zachte	-11.0584
▁End	-11.059
▁pur	-11.059
▁technologie	-11.059
▁Fun	-11.0592
▁72	-11.0594
NC	-11.0594
▁Bet	-11.0598
orp	-11.0606
▁hor	-11.0606
▁therein	-11.0608
▁Milan	-11.061
NS	-11.0611
▁appartementen	-11.0614
straat	-11.0614
87	-11.0615
rick	-11.0617
▁Zij	-11.062
▁demás	-11.0623
73	-11.0623
▁gratuita	-11.0625
▁desp	-11.0631
ATION	-11.0631
kop	-11.0631
▁initial	-11.0636
▁fans	-11.0637
▁naast	-11.064
▁estudios	-11.0643
▁Link	-11.0647
eras	-11.0647
▁smooth	-11.0648
▁Ú	-11.065
▁Sar	-11.0651
idí	-11.0656
▁Final	-11.0657
▁cuntas	-11.0658
oirceallá	-11.0658
▁Aquarium	-11.0658
▁Criminal	-11.0658
▁Equipment	-11.0658
▁fianaise	-11.0658
▁straight	-11.0658
▁absorb	-11.0658
▁cáncer	-11.0658
▁nochtadh	-11.0658
▁PVC	-11.0658
▁dispute	-11.0658
▁false	-11.0658
▁innovation	-11.0658
▁talmhaíochta	-11.0658
▁Night	-11.0659
▁moving	-11.0659
▁Rural	-11.0659
▁vacaciones	-11.0659
▁Richard	-11.0659
▁Miami	-11.0659
▁vivir	-11.0659
▁distancia	-11.0659
▁Japanese	-11.0659
▁tourism	-11.066
▁Foundation	-11.066
▁natuur	-11.0661
▁1961	-11.0661
▁1988	-11.0661
▁trádáil	-11.0663
▁fheabhsú	-11.0663
▁Valle	-11.0667
▁Legal	-11.0667
▁imposed	-11.0669
▁reducir	-11.0669
▁artist	-11.0671
▁lay	-11.0672
▁daalt	-11.0674
UC	-11.0676
▁pesar	-11.0676
▁competitive	-11.0676
▁cheadú	-11.068
FS	-11.068
▁scor	-11.0683
▁launched	-11.0684
▁candidate	-11.0685
▁dé	-11.0686
▁mine	-11.069
DC	-11.069
▁Speed	-11.0691
▁managed	-11.0693
▁Hill	-11.0694
▁oscailte	-11.0697
▁presión	-11.0699
▁youth	-11.0699
bles	-11.0701
IJ	-11.0701
▁Tí	-11.0704
▁pair	-11.0709
PL	-11.0709
▁inhoud	-11.071
▁regions	-11.071
▁critical	-11.0711
cam	-11.0711
▁coordina	-11.0712
▁bouw	-11.0713
lena	-11.0715
▁broad	-11.0715
bell	-11.0717
anse	-11.0719
▁eliminar	-11.072
▁Vie	-11.072
▁Fra	-11.0725
▁(25	-11.0726
kamer	-11.0731
▁gear	-11.0734
▁familias	-11.0737
▁figures	-11.074
:5	-11.074
▁wijn	-11.0742
▁Extract	-11.0743
▁03	-11.0744
ages	-11.0746
pac	-11.075
bes	-11.0753
▁59	-11.0754
▁existe	-11.0755
▁encourage	-11.0758
▁willen	-11.0758
1.	-11.0761
▁Holm	-11.0764
-6	-11.0765
iche	-11.0772
▁gcomhair	-11.0774
uf	-11.0775
▁Hoger	-11.0775
▁57	-11.0776
▁bin	-11.0776
▁gco	-11.0776
poli	-11.0779
▁Three	-11.078
▁Avenue	-11.078
▁gabháil	-11.078
▁período	-11.078
▁phoiblí	-11.078
▁preceding	-11.078
▁abierta	-11.078
▁Thomas	-11.078
▁libertad	-11.078
▁possibility	-11.078
▁rendimiento	-11.078
▁remote	-11.078
▁securities	-11.078
▁pleanála	-11.0781
▁Francia	-11.0783
▁depth	-11.0783
▁1939	-11.0783
▁cited	-11.0783
▁Pending	-11.0784
▁electricity	-11.0784
▁dwelling	-11.0788
▁proportion	-11.0789
▁judicial	-11.079
▁eeuw	-11.0792
▁Kat	-11.0794
▁gusta	-11.0795
▁Angeles	-11.0797
▁declared	-11.0797
▁Region	-11.0798
▁tíortha	-11.0798
pet	-11.08
▁Production	-11.0803
▁Mp	-11.0806
▁Hide	-11.0807
▁normally	-11.0807
▁effectively	-11.0807
hydr	-11.0808
▁máquina	-11.0809
▁plantas	-11.081
▁llamado	-11.081
▁facilitate	-11.081
éin	-11.0811
mir	-11.0811
onia	-11.0814
▁extended	-11.0814
▁Aibreán	-11.0815
▁fir	-11.0815
▁Luis	-11.0817
vast	-11.082
▁Angel	-11.0821
▁Queen	-11.0821
▁netwerk	-11.0822
▁dado	-11.0823
war	-11.0825
▁Jose	-11.0825
▁moral	-11.0826
Or	-11.0829
▁políticas	-11.083
▁asbhaint	-11.0832
tico	-11.0832
TER	-11.0836
▁cosa	-11.0843
▁scoir	-11.0845
place	-11.0848
Tu	-11.0852
▁else	-11.0852
▁dieren	-11.0852
4,	-11.0853
▁Tool	-11.0855
▁Forces	-11.0859
run	-11.0861
Caibidil	-11.0863
▁returned	-11.087
ntal	-11.0872
▁kids	-11.0874
▁Bou	-11.0877
▁Appartement	-11.0882
▁toma	-11.0882
▁gníomh	-11.0883
CD	-11.0885
▁adicional	-11.0887
▁grado	-11.0888
▁meetings	-11.0888
▁gere	-11.089
▁characters	-11.0892
óga	-11.0896
▁taal	-11.0901
▁PR	-11.0901
▁rápida	-11.0901
▁Comité	-11.0904
▁Ministry	-11.0904
▁discomfort	-11.0904
▁inferior	-11.0904
▁uitstekend	-11.0904
▁naturaleza	-11.0904
▁Credit	-11.0904
▁ultra	-11.0904
▁ontworpen	-11.0904
▁Czech	-11.0904
▁Cathrach	-11.0904
▁luxe	-11.0904
▁Daniel	-11.0904
▁vijf	-11.0905
▁Cloud	-11.0905
▁ísle	-11.0905
▁variedad	-11.0905
▁compatible	-11.0905
izo	-11.0906
▁creative	-11.0906
▁cosm	-11.0906
▁supporting	-11.0906
▁participación	-11.0907
▁ropa	-11.091
▁50%	-11.0912
▁whenever	-11.0913
▁Nations	-11.0914
▁simplemente	-11.0914
▁Kor	-11.0914
▁tekst	-11.0915
tine	-11.0915
▁paz	-11.092
▁escala	-11.092
▁fuel	-11.0921
▁vluchten	-11.0925
▁aitheanta	-11.0926
▁dia	-11.0926
▁supervisor	-11.0926
taigh	-11.0927
vorm	-11.0928
▁evitar	-11.0928
▁Made	-11.0932
▁soorten	-11.0933
▁visitar	-11.0934
▁estamos	-11.0934
8%	-11.0936
▁Rail	-11.0943
▁beeld	-11.0946
▁Features	-11.0947
▁PO	-11.0948
▁utilizado	-11.0951
Déantar	-11.0952
mhach	-11.0952
▁grasa	-11.0953
▁gets	-11.0954
agen	-11.0957
▁invita	-11.0964
▁advantages	-11.0969
▁cloud	-11.0974
uele	-11.0974
▁Original	-11.0976
non	-11.0979
▁Fabric	-11.098
lid	-11.0983
Li	-11.0983
udi	-11.0984
▁barra	-11.0984
▁Nederlands	-11.0986
▁ending	-11.0988
▁participants	-11.099
▁Fin	-11.0993
▁cuidado	-11.0993
▁dejar	-11.0994
▁teachers	-11.0995
nemen	-11.0996
▁minute	-11.0998
▁esperan	-11.1006
LS	-11.1009
oga	-11.1009
▁printer	-11.101
▁Send	-11.101
▁GE	-11.1011
loop	-11.1013
▁marine	-11.1013
▁AS	-11.1013
▁balla	-11.1013
▁humano	-11.1014
aging	-11.1016
0.00	-11.1017
▁wi	-11.1017
▁Rep	-11.1018
▁historic	-11.102
▁Plu	-11.1022
oirí	-11.1024
EX	-11.1025
▁Crystal	-11.1029
▁Premium	-11.1029
▁diseñado	-11.1029
▁dromchla	-11.1029
▁enterprise	-11.1029
▁pleasant	-11.1029
▁vídeo	-11.1029
▁oiread	-11.1029
▁Accident	-11.1029
▁december	-11.1029
▁laptop	-11.1029
▁comparison	-11.1029
▁huurauto	-11.1029
▁código	-11.1029
▁Title	-11.1029
▁damáiste	-11.1029
▁extensive	-11.1029
▁instance	-11.1029
▁entertainment	-11.103
▁woon	-11.103
ão	-11.103
▁organización	-11.103
▁Tijd	-11.103
▁Ionad	-11.1032
▁Joseph	-11.1032
▁contae	-11.1032
▁aibí	-11.1032
cher	-11.1032
▁bosca	-11.1033
▁pecado	-11.1033
río	-11.1033
▁plek	-11.1034
▁bloque	-11.1034
▁respectively	-11.1036
▁cosc	-11.1036
▁Computer	-11.1037
▁reservation	-11.1037
ania	-11.1038
▁Joined	-11.1038
▁zouden	-11.104
▁telefoon	-11.1041
▁gelijk	-11.1041
▁hijo	-11.1046
▁bhailiú	-11.1046
▁oideachais	-11.1049
▁grab	-11.1049
▁bhaile	-11.1051
rig	-11.1052
▁serán	-11.1054
▁Cultural	-11.1057
▁íocaíochtaí	-11.1059
▁formal	-11.106
▁estación	-11.1064
▁desarrollado	-11.1068
chain	-11.107
▁prueba	-11.1072
▁bomb	-11.1074
▁achieved	-11.1075
▁grounds	-11.1075
▁feet	-11.1077
▁Ty	-11.108
▁alimentos	-11.108
▁Flight	-11.1081
▁regime	-11.1081
▁Blo	-11.1082
wear	-11.1086
▁regel	-11.1087
▁rub	-11.1087
▁Dom	-11.1089
▁£1	-11.1091
▁manufacture	-11.1094
▁léiriú	-11.1096
ipe	-11.1097
▁Flowers	-11.11
RES	-11.1102
▁vest	-11.1108
▁Rosa	-11.1108
▁Bon	-11.111
▁Cén	-11.1111
▁arise	-11.1114
MB	-11.1115
▁combina	-11.1118
▁insert	-11.112
▁bases	-11.112
▁Terms	-11.1124
▁Learn	-11.1125
▁Hard	-11.1126
fort	-11.1126
inte	-11.1128
ress	-11.113
▁showing	-11.1132
tones	-11.1134
▁customs	-11.1137
▁posibilidad	-11.1138
▁witness	-11.114
▁vooral	-11.115
▁natuurlijk	-11.1152
▁Remove	-11.1152
ireacht	-11.1153
▁coast	-11.1153
color	-11.1154
DP	-11.1154
▁Choimisiúin	-11.1155
▁Zithoek	-11.1155
▁hAoine	-11.1155
▁jóvenes	-11.1155
▁navigation	-11.1155
▁november	-11.1155
▁oktober	-11.1155
▁strategic	-11.1155
▁Capital	-11.1155
▁cuntais	-11.1155
▁Ghníomhaireacht	-11.1155
▁Dream	-11.1155
▁communicate	-11.1156
pol	-11.1156
▁amazing	-11.1156
▁extensión	-11.1156
▁determination	-11.1156
▁augustus	-11.1156
▁interview	-11.1156
▁knew	-11.1156
▁hardware	-11.1157
▁nubes	-11.1157
fit	-11.1158
▁bread	-11.1158
▁1985	-11.1159
▁cruinniú	-11.1159
▁ervoor	-11.1159
▁natuurlijke	-11.116
▁banda	-11.116
phone	-11.1162
nblock	-11.1163
▁chosen	-11.1164
▁talent	-11.1164
▁Dress	-11.1165
▁Paper	-11.1165
▁dlite	-11.1165
▁consum	-11.1166
3%	-11.117
▁mention	-11.1171
▁aspect	-11.1172
▁redes	-11.1172
mond	-11.1175
▁éifeachtach	-11.1176
▁fields	-11.1177
▁hip	-11.1177
▁rekening	-11.1181
▁Stair	-11.1181
▁tre	-11.1182
▁ofertas	-11.1182
▁corner	-11.1183
!!	-11.1183
hold	-11.1185
▁Han	-11.1185
▁entrar	-11.1186
▁push	-11.1189
▁DA	-11.1192
▁servant	-11.1194
▁médico	-11.1195
▁rat	-11.1195
▁accepted	-11.1197
▁Neu	-11.1197
▁tasa	-11.1198
orn	-11.1203
▁Úsáid	-11.1205
▁channel	-11.1205
bord	-11.1207
dding	-11.1207
oifigeach	-11.1212
▁Bille	-11.1215
anto	-11.1219
▁Fre	-11.1219
▁crea	-11.1219
gua	-11.1224
▁Dam	-11.1231
▁consistent	-11.1231
▁Need	-11.1231
▁Dog	-11.1232
▁reproduc	-11.1236
irse	-11.1237
▁loan	-11.1243
▁funding	-11.1247
▁core	-11.1248
▁bru	-11.1263
mus	-11.1267
making	-11.1267
die	-11.1271
▁tub	-11.1272
▁hang	-11.1273
iÃ	-11.1278
▁Wine	-11.128
ctic	-11.128
▁aims	-11.1282
SO	-11.1283
▁disposal	-11.1284
▁sóisialta	-11.1284
▁Febrero	-11.1284
▁increment	-11.1284
▁conversation	-11.1284
▁Taiwan	-11.1284
▁aumento	-11.1284
▁iemand	-11.1284
▁feabha	-11.1284
▁razón	-11.1284
▁nooit	-11.1284
▁Kitchenette	-11.1284
▁Gnótha	-11.1284
▁collaboration	-11.1285
▁Organization	-11.1285
▁Kids	-11.1285
▁dearbhú	-11.1286
▁poker	-11.1286
▁jugar	-11.1286
▁ceithre	-11.1286
▁presenta	-11.1286
▁Switzerland	-11.1287
▁completamente	-11.1287
▁bijna	-11.1287
▁lujo	-11.1287
▁Seirbhísí	-11.1288
▁agenda	-11.1288
sign	-11.1288
▁domhanda	-11.1288
▁fhaigh	-11.1289
▁58	-11.1289
dura	-11.1292
▁founded	-11.1293
▁soilse	-11.1294
▁vergelijking	-11.1295
glas	-11.1295
▁dynamic	-11.1295
cro	-11.1296
▁Dial	-11.1296
ól	-11.1298
▁hulp	-11.1304
▁Ring	-11.1305
▁Ã	-11.1306
hard	-11.1306
▁pequeños	-11.1306
▁Estos	-11.1308
lap	-11.1309
▁combined	-11.131
▁Roll	-11.131
gli	-11.1312
▁mall	-11.1318
▁belang	-11.1319
▁risks	-11.1324
▁obras	-11.1324
▁foráil	-11.1325
▁principio	-11.1326
▁herramienta	-11.1326
▁figure	-11.1327
aries	-11.1328
▁operator	-11.1329
▁Pension	-11.1329
▁doet	-11.1333
▁Europea	-11.1334
▁selling	-11.1336
▁uitge	-11.134
▁Tam	-11.1342
▁parent	-11.1343
▁teacher	-11.1358
▁cleaning	-11.1359
▁kn	-11.136
▁zwart	-11.1361
▁oven	-11.1362
▁76	-11.1364
▁nacht	-11.1365
▁BE	-11.1366
groep	-11.1368
▁PE	-11.1368
▁mold	-11.1369
▁Ash	-11.1373
dó	-11.1374
▁pens	-11.1375
▁bak	-11.1376
▁defin	-11.1378
▁Zie	-11.1381
▁Torre	-11.1381
▁Sy	-11.1382
▁harde	-11.1383
elli	-11.1384
▁klant	-11.1388
pers	-11.1389
▁Solo	-11.139
▁ACHT	-11.139
acú	-11.1395
▁proveedor	-11.1397
▁profesional	-11.1397
tech	-11.1402
▁rial	-11.1404
▁educa	-11.1404
▁sets	-11.1405
▁noord	-11.1408
▁carr	-11.1408
▁Lin	-11.1408
▁tenga	-11.1409
▁klein	-11.141
zh	-11.1411
▁taifead	-11.1411
▁authentic	-11.1413
▁Congress	-11.1413
▁EUROPE	-11.1413
▁Pennsylvania	-11.1413
▁cottage	-11.1413
▁estadounidense	-11.1413
▁moeilijk	-11.1413
▁sensación	-11.1413
▁thagairt	-11.1413
▁tháirgeadh	-11.1413
▁focail	-11.1413
▁Croatia	-11.1413
▁Consejo	-11.1413
▁Sistema	-11.1413
▁toevoegen	-11.1413
▁plandáil	-11.1413
▁gate	-11.1414
▁geluid	-11.1414
▁socruithe	-11.1414
▁sight	-11.1414
▁coimeád	-11.1414
▁Rubber	-11.1414
▁optimal	-11.1414
▁duration	-11.1415
▁sigue	-11.1415
▁solamente	-11.1416
▁guitar	-11.1416
▁ballot	-11.1416
position	-11.1416
▁páirteach	-11.1416
▁Brasil	-11.1417
▁privada	-11.1417
▁index	-11.1417
▁soláthraí	-11.1418
▁plot	-11.1418
▁Common	-11.1418
▁fácilmente	-11.1419
▁lograr	-11.1419
▁unlimited	-11.1419
▁eigenschappen	-11.142
▁creación	-11.1422
▁blind	-11.1422
▁shops	-11.1424
▁resultaten	-11.1426
▁norte	-11.1427
▁Teach	-11.1428
▁pull	-11.1429
▁1,5	-11.143
▁EE	-11.1431
olo	-11.1431
gging	-11.1432
▁María	-11.1435
▁elected	-11.1439
▁contributions	-11.1439
horn	-11.1441
zon	-11.1441
▁ziet	-11.1441
▁Venta	-11.1442
ieren	-11.1444
oli	-11.1445
▁groen	-11.1448
omh	-11.145
▁driver	-11.1451
▁sexy	-11.1453
▁informa	-11.1455
▁údarú	-11.1457
▁pública	-11.1458
▁session	-11.1459
▁recibir	-11.146
▁pequeña	-11.146
izer	-11.146
ánta	-11.146
▁visión	-11.1461
laí	-11.1462
▁lopen	-11.1463
▁meán	-11.1466
▁seeking	-11.1466
▁stored	-11.1469
▁bepaalde	-11.1472
▁fri	-11.1473
▁Lang	-11.1473
kl	-11.1473
▁DI	-11.1477
iano	-11.1478
▁linked	-11.1479
▁observa	-11.148
7°	-11.1481
IST	-11.1482
▁purchased	-11.1482
▁implica	-11.1483
maal	-11.1484
geven	-11.1484
▁Geen	-11.1487
▁adults	-11.1487
▁estaban	-11.1487
core	-11.1491
vic	-11.1491
▁Choos	-11.1492
à	-11.1492
start	-11.1493
follow	-11.1493
▁acepta	-11.1494
mada	-11.1496
▁Laat	-11.1499
▁Members	-11.1499
▁cabin	-11.15
▁pic	-11.1505
VE	-11.1505
▁5-	-11.1507
▁inniúla	-11.1513
▁"(	-11.1515
OUR	-11.1517
▁rust	-11.1518
vul	-11.1521
▁Save	-11.1521
▁tenía	-11.1522
▁vormen	-11.1523
emia	-11.1523
date	-11.1524
ringen	-11.1524
▁tickets	-11.1524
▁tag	-11.1529
kr	-11.1532
ics	-11.1533
ago	-11.1534
ept	-11.1538
▁administra	-11.1539
▁directed	-11.1541
offiezetapparaat	-11.1545
▁Bluetooth	-11.1545
▁Circuit	-11.1545
▁YouTube	-11.1545
▁conexión	-11.1545
▁imprisonment	-11.1545
▁laethanta	-11.1545
▁rachaidh	-11.1545
▁statistics	-11.1545
▁fostaithe	-11.1545
▁físeán	-11.1545
▁Greece	-11.1545
▁conocido	-11.1545
▁television	-11.1545
▁sangre	-11.1545
▁Rialtais	-11.1545
▁Palace	-11.1545
▁Uni	-11.1546
▁plazo	-11.1546
▁Choiste	-11.1546
▁inniúil	-11.1546
▁malairte	-11.1547
▁áitiúla	-11.1548
▁experienced	-11.1548
▁rápidamente	-11.1548
▁thoil	-11.1549
▁upgrade	-11.155
▁Constitution	-11.1551
▁evil	-11.1551
▁variable	-11.1554
▁terras	-11.1555
▁epi	-11.1558
▁bainistíochta	-11.1559
▁artificial	-11.1563
▁engaged	-11.1563
▁employed	-11.1564
▁totalmente	-11.1565
▁Vin	-11.1565
NI	-11.1565
▁manos	-11.1567
▁Text	-11.1567
isme	-11.1567
▁rijden	-11.1568
▁Guests	-11.1569
▁carrier	-11.157
San	-11.1571
▁juni	-11.1572
▁landen	-11.1572
▁exactly	-11.1576
▁target	-11.1577
gia	-11.158
ami	-11.1581
▁Shi	-11.1582
▁cumhachta	-11.1582
▁ES	-11.1585
▁corte	-11.1586
▁Times	-11.1588
▁presta	-11.1589
▁participa	-11.1591
úis	-11.1593
▁association	-11.1594
▁brother	-11.1595
▁jump	-11.1596
loze	-11.16
▁Cart	-11.1602
▁implemented	-11.1602
llo	-11.1609
▁HO	-11.1612
▁llega	-11.1613
▁Iran	-11.1616
▁Ang	-11.1616
▁chríoch	-11.1619
▁bhfoirm	-11.1619
▁jonge	-11.162
▁signal	-11.162
▁Ean	-11.1621
▁assess	-11.1622
Na	-11.1625
nummer	-11.1626
=	-11.1626
ruimte	-11.1626
proces	-11.1631
▁sto	-11.1634
▁elimina	-11.1634
94	-11.1635
▁taxi	-11.1643
boek	-11.1643
▁Vegas	-11.1645
▁resto	-11.1648
▁4-	-11.1649
▁weet	-11.1652
▁réigiún	-11.1655
▁ocupa	-11.1656
▁schedule	-11.1656
▁Fall	-11.1659
▁problemen	-11.1661
druk	-11.1664
culo	-11.1665
▁Cúirte	-11.1666
▁cáilithe	-11.1668
▁stream	-11.1671
stan	-11.1671
▁particulars	-11.1673
▁peligro	-11.1675
▁locations	-11.1677
▁bat	-11.1678
▁Coiscthe	-11.1678
▁Entonces	-11.1678
▁Londain	-11.1678
▁atmosphere	-11.1678
▁eléctrico	-11.1678
▁espiritual	-11.1678
▁fábrica	-11.1678
▁iglesia	-11.1678
▁ndáiríre	-11.1678
▁noviembre	-11.1678
▁phobal	-11.1678
▁pérdida	-11.1678
▁antiguo	-11.1678
▁Habana	-11.1678
▁dagelijks	-11.1678
▁vervolgens	-11.1679
▁scannán	-11.1679
▁shipping	-11.1679
▁duizend	-11.1679
▁Rialtas	-11.1679
▁brief	-11.168
▁caiteachas	-11.168
▁Dubai	-11.168
▁suimeanna	-11.168
▁Charles	-11.168
▁specifically	-11.1681
▁simplí	-11.1681
▁reaction	-11.1681
▁phase	-11.1682
▁dienst	-11.1682
▁funciones	-11.1682
íoch	-11.1683
lik	-11.1683
▁VIII	-11.1683
eanúint	-11.1683
tair	-11.1684
▁Flash	-11.1684
▁protein	-11.1684
▁GPS	-11.1685
ílean	-11.1686
▁veiligheid	-11.1687
▁conversion	-11.1689
▁verse	-11.1689
vision	-11.169
▁protest	-11.1691
▁1980	-11.1692
nik	-11.1692
▁iedereen	-11.1694
▁teams	-11.1694
▁barco	-11.1696
▁fhorálacha	-11.1696
PO	-11.1696
houden	-11.1698
▁sealbhóir	-11.1698
▁introduc	-11.17
▁analyse	-11.17
▁kleding	-11.1701
▁realizado	-11.1702
▁Store	-11.1702
cast	-11.1702
▁Bajo	-11.1704
▁posición	-11.1704
▁motion	-11.1704
spite	-11.1706
▁bedrijven	-11.171
ky	-11.1713
▁español	-11.1716
▁rare	-11.1716
nom	-11.1717
fone	-11.172
▁courses	-11.1721
ML	-11.1721
bemos	-11.1722
abolic	-11.1722
▁kleuren	-11.1723
▁Servicios	-11.1723
▁offices	-11.1724
▁Nieuwe	-11.1724
aja	-11.1726
teach	-11.1726
▁diensten	-11.173
▁67	-11.1731
▁Andere	-11.1732
▁fuerzas	-11.1735
▁representatives	-11.1735
▁gcur	-11.1735
▁aplica	-11.1737
▁weekly	-11.1738
tec	-11.1738
bot	-11.1739
▁Roma	-11.1741
▁businesses	-11.1742
▁Taxi	-11.1742
▁dio	-11.1744
▁trína	-11.1744
▁indicated	-11.1746
▁Tim	-11.1747
tti	-11.1748
yer	-11.1752
▁(30	-11.1753
!"	-11.1755
▁songs	-11.1757
▁speaker	-11.1759
Úsáid	-11.1761
▁mayo	-11.1762
law	-11.1762
gesteld	-11.1763
▁encuentran	-11.1764
▁listen	-11.1765
▁fiets	-11.1777
▁Opera	-11.1781
ulation	-11.1784
yu	-11.1789
UM	-11.1789
▁stars	-11.1789
▁Bin	-11.1791
▁rey	-11.1792
▁oportunidad	-11.1797
▁char	-11.1798
bid	-11.1801
Di	-11.1802
▁till	-11.1802
uth	-11.1803
care	-11.1804
▁asegurar	-11.1805
kan	-11.1805
▁13.	-11.1806
▁Boat	-11.1809
▁leg	-11.181
nut	-11.1811
▁acting	-11.1811
▁â	-11.1812
▁complement	-11.1813
▁attribut	-11.1813
▁Caribbean	-11.1813
▁Magnetron	-11.1813
▁innovative	-11.1813
▁shocrú	-11.1813
▁terraza	-11.1813
▁uathoibríoch	-11.1813
▁tugtha	-11.1813
▁solución	-11.1813
torio	-11.1813
▁oíche	-11.1813
▁acquisition	-11.1814
▁puedo	-11.1814
▁groei	-11.1814
▁William	-11.1814
▁mortgage	-11.1814
▁solicitud	-11.1814
▁agosto	-11.1814
▁gclár	-11.1814
▁legislation	-11.1814
▁earnáil	-11.1814
▁battle	-11.1816
▁1977	-11.1817
▁Sound	-11.1818
▁chumas	-11.1819
▁Tower	-11.182
lijst	-11.182
▁fuck	-11.182
▁Norte	-11.182
▁304	-11.1821
▁zin	-11.1821
▁pink	-11.1822
▁brú	-11.1822
▁menudo	-11.1822
▁folder	-11.1822
▁bevindt	-11.1822
▁Recent	-11.1824
▁aprender	-11.1824
▁Recovery	-11.1825
▁Finally	-11.1825
▁madre	-11.1825
▁beart	-11.1826
▁Village	-11.1826
▁$2	-11.1829
▁Active	-11.183
ilo	-11.183
▁strengthen	-11.1832
▁conradh	-11.1834
▁organisatie	-11.1835
▁zorgt	-11.1835
▁Sky	-11.1836
▁Round	-11.1839
▁Bri	-11.1839
Mostrar	-11.1839
All	-11.1845
EE	-11.1848
▁GO	-11.1848
▁potencial	-11.1849
▁formación	-11.1849
ike	-11.185
▁supports	-11.185
▁fuar	-11.1853
▁AM	-11.1854
▁Cool	-11.1856
EST	-11.1856
▁knop	-11.1857
▁bhreise	-11.1858
▁Sto	-11.1859
▁directory	-11.186
▁maat	-11.186
▁lig	-11.1861
ello	-11.1868
sea	-11.1871
▁ran	-11.1874
▁lip	-11.1875
▁Its	-11.1877
▁deduction	-11.1879
▁marco	-11.1881
▁Hor	-11.1881
stof	-11.1887
▁wie	-11.1887
▁partido	-11.189
▁cóir	-11.189
▁UM	-11.1898
▁Call	-11.1898
▁raghaid	-11.1899
éanann	-11.1901
▁cel	-11.1903
▁gek	-11.1903
▁Cómo	-11.1904
graf	-11.1906
stitution	-11.1908
▁Sna	-11.1909
▁EX	-11.1909
▁Carlos	-11.191
▁79	-11.1911
▁prop	-11.1913
ijk	-11.1914
▁gegeven	-11.1915
▁Est	-11.1916
▁identify	-11.192
▁Gent	-11.1921
▁CON	-11.1926
▁klaar	-11.1932
▁Off	-11.1934
▁Í	-11.1936
▁calendar	-11.1943
íomh	-11.1944
▁ligean	-11.1944
BS	-11.1946
▁Disc	-11.1947
▁leeftijd	-11.195
▁Administration	-11.195
▁chothabháil	-11.195
▁consecuencia	-11.195
▁diciembre	-11.195
▁emergency	-11.195
▁responsabilidad	-11.195
▁soláthraithe	-11.195
▁gluaiseacht	-11.195
▁meteorológica	-11.195
▁monarcha	-11.195
▁Tierra	-11.195
▁áfach	-11.195
▁sharing	-11.1951
▁Diamond	-11.1951
▁soporte	-11.1951
▁architecture	-11.1951
▁admir	-11.1951
▁abandon	-11.1951
▁Kluisje	-11.1951
▁gceart	-11.1951
▁Oifigiúil	-11.1952
▁severe	-11.1952
▁Municipality	-11.1952
▁lights	-11.1952
▁tionscadail	-11.1952
▁fanacht	-11.1953
▁tipos	-11.1953
▁Có	-11.1956
▁larga	-11.1957
▁delegated	-11.1957
▁álainn	-11.1958
▁zomer	-11.1958
▁fiche	-11.1959
▁Reino	-11.1962
aban	-11.1962
▁horse	-11.1962
▁SCEIDEAL	-11.1963
▁1994	-11.1963
▁úinéir	-11.1964
▁sw	-11.1965
▁Fla	-11.1965
▁poner	-11.1966
▁Georgia	-11.1967
iness	-11.1968
▁notified	-11.1971
▁Nor	-11.1971
▁céad	-11.1974
large	-11.1977
▁Paz	-11.1977
delen	-11.1979
▁quienes	-11.1979
▁Hal	-11.1979
ject	-11.1979
▁transition	-11.198
▁Easter	-11.1981
▁Aqua	-11.1982
▁cd	-11.1985
▁dicht	-11.1986
▁Fort	-11.1986
▁operational	-11.1988
▁Meith	-11.1988
▁dam	-11.1989
▁nation	-11.1989
▁Arab	-11.1992
▁Imp	-11.1993
tus	-11.1993
▁proof	-11.1994
▁Hack	-11.1997
itie	-11.2
VA	-11.2002
ock	-11.2002
-30	-11.2002
4),	-11.2007
preci	-11.2008
AIN	-11.2008
▁Golden	-11.201
▁verb	-11.2012
▁infection	-11.2012
▁fase	-11.2013
▁ripe	-11.2013
VO	-11.2015
▁Tub	-11.2016
▁indien	-11.2018
▁explica	-11.2019
▁catch	-11.202
▁formed	-11.2022
▁song	-11.2025
▁Flower	-11.2026
▁advertenties	-11.2029
▁Vice	-11.203
▁professionals	-11.2032
▁opción	-11.2034
▁tienda	-11.2036
▁Palma	-11.2036
▁herramientas	-11.2043
Is	-11.2043
▁Pensions	-11.2043
rais	-11.2045
▁Cana	-11.2045
▁distribu	-11.2045
700	-11.2052
▁visited	-11.2053
kg	-11.2053
▁leren	-11.2053
▁Pul	-11.2055
tivas	-11.2057
▁contiene	-11.206
▁brings	-11.2062
▁hosts	-11.2062
▁nummer	-11.2063
▁allowing	-11.2066
▁genera	-11.2067
round	-11.2069
pha	-11.2069
IRE	-11.207
▁moderne	-11.207
▁eva	-11.2071
▁Jackets	-11.2075
info	-11.2075
▁Tipo	-11.2075
reach	-11.2076
emp	-11.2077
tour	-11.2079
▁Audio	-11.2079
utter	-11.2081
▁rí	-11.2083
▁attract	-11.2084
▁hostels	-11.2084
▁Dara	-11.2087
▁Academy	-11.2089
▁Fashion	-11.2089
▁Físeán	-11.2089
▁Mediterranean	-11.2089
▁Reference	-11.2089
▁Roghchlár	-11.2089
▁Singapore	-11.2089
▁Sydney	-11.2089
▁judgment	-11.2089
▁Insurance	-11.2089
▁Keuken	-11.2089
▁aluminium	-11.2089
▁máximo	-11.2089
▁pinsean	-11.2089
▁precise	-11.2089
▁Popular	-11.209
▁Museo	-11.209
▁Middle	-11.209
▁Foinse	-11.209
▁spacious	-11.209
▁radical	-11.2091
▁riamh	-11.2091
▁ml	-11.2091
▁bhforáil	-11.2091
▁AB	-11.2091
▁temporary	-11.2091
▁1978	-11.2092
▁tseirbhís	-11.2094
▁Éisteachta	-11.2094
▁Parque	-11.2095
▁identification	-11.2096
person	-11.2096
▁Linux	-11.2096
▁household	-11.2096
▁prevention	-11.2098
▁CNC	-11.2099
gezet	-11.2101
▁voorwaarden	-11.2102
▁Young	-11.2102
▁VII	-11.2105
▁behandeling	-11.2106
pie	-11.2106
▁electro	-11.2107
▁kijken	-11.2107
akt	-11.2108
lumin	-11.2108
▁organized	-11.2109
abo	-11.2109
▁Person	-11.211
▁comercial	-11.2112
▁acquire	-11.2112
▁Huis	-11.2112
▁stof	-11.2113
ester	-11.2113
▁clinical	-11.2113
▁ghabháil	-11.2118
▁Bible	-11.212
▁Werk	-11.212
▁Ref	-11.2126
veld	-11.2126
BO	-11.2127
lacha	-11.2132
▁mei	-11.2132
lp	-11.2133
▁temas	-11.2136
▁fáilte	-11.2137
mers	-11.2139
pur	-11.214
▁eind	-11.2144
▁ON	-11.2147
táil	-11.2151
ENT	-11.2152
▁EM	-11.2152
▁happens	-11.2153
▁fails	-11.2154
▁conserva	-11.2155
▁niño	-11.2156
▁Process	-11.2157
▁nglacfa	-11.2159
▁improvement	-11.2161
▁Track	-11.2161
verse	-11.2162
▁Chat	-11.2163
▁zei	-11.2165
▁Ion	-11.2165
ishing	-11.2166
merk	-11.217
SU	-11.2171
▁kra	-11.2173
capable	-11.2173
▁buan	-11.2177
kleur	-11.2179
▁Stone	-11.2183
▁wand	-11.2184
front	-11.2192
▁2-	-11.2194
▁leads	-11.2196
rainn	-11.2197
▁plane	-11.2199
any	-11.2199
▁restaurante	-11.22
▁dead	-11.22
HE	-11.2201
cel	-11.2203
tate	-11.2206
▁icon	-11.2207
ane	-11.2208
▁ple	-11.2208
como	-11.2209
▁Ár	-11.2209
CN	-11.2211
▁permanente	-11.2216
mhais	-11.2219
▁humana	-11.222
▁eco	-11.2222
▁Lig	-11.2223
▁(28	-11.2225
uireadh	-11.2226
tención	-11.2226
▁Engels	-11.2228
rink	-11.2228
Si	-11.2228
▁Available	-11.223
▁Dinsdag	-11.223
▁Diseño	-11.223
▁Koninkrijk	-11.223
▁Shanghai	-11.223
▁Soilsiú	-11.223
▁Soláthraithe	-11.223
▁frecuente	-11.223
▁trealamh	-11.223
▁verbeteren	-11.223
▁vroeg	-11.223
▁láidir	-11.223
▁width	-11.223
▁Muslim	-11.223
▁Descarga	-11.223
▁thuras	-11.223
▁Maandag	-11.223
▁chiontú	-11.223
▁comhlíonadh	-11.223
▁thionscnamh	-11.223
▁tslí	-11.2231
▁comhaontú	-11.2231
▁tagged	-11.2231
▁Display	-11.2231
▁cheadúnas	-11.2231
▁truck	-11.2231
▁Bathroom	-11.2231
▁vacation	-11.2231
▁Ealaíon	-11.2232
▁insertion	-11.2233
▁creidmheasa	-11.2233
▁midden	-11.2234
▁comhlachtaí	-11.2236
▁gebaseerd	-11.2237
▁mná	-11.2238
▁temple	-11.2239
ming	-11.2244
▁Consumer	-11.2244
▁Conditions	-11.2245
Ha	-11.2248
▁Gay	-11.225
▁engineering	-11.2253
▁Want	-11.2253
▁installatie	-11.2259
So	-11.226
▁Trust	-11.2263
▁Works	-11.2264
▁Chair	-11.2265
▁cum	-11.2265
▁Marketing	-11.2266
▁emit	-11.2269
▁educational	-11.227
▁puzzle	-11.2271
▁yoga	-11.2277
ético	-11.2283
▁sil	-11.2285
▁Ken	-11.2286
▁seacht	-11.2286
▁Visa	-11.2292
▁euros	-11.2292
Questions	-11.2293
▁24-	-11.2294
▁Reviews	-11.2296
hield	-11.2297
IV	-11.2298
▁mBan	-11.2299
▁estará	-11.2301
▁kilometer	-11.2302
▁papers	-11.2302
▁Lot	-11.2303
flu	-11.2304
▁96	-11.2309
▁leaders	-11.2311
▁Restaurants	-11.2316
▁1.5	-11.2317
lga	-11.2321
▁introduce	-11.2321
▁vin	-11.2322
▁terrorist	-11.2325
▁Mode	-11.2327
▁vehículos	-11.233
▁sail	-11.2331
word	-11.2331
jaar	-11.2336
itch	-11.2339
▁toch	-11.2341
▁pasa	-11.2342
▁iar	-11.2347
▁alma	-11.2348
teannta	-11.2349
▁il	-11.235
wind	-11.2351
▁compr	-11.2354
▁Toda	-11.2359
▁Officer	-11.236
▁warrant	-11.2361
▁(5	-11.2365
▁colores	-11.2366
▁sabe	-11.2367
▁Custom	-11.2367
▁Force	-11.2368
▁necesaria	-11.237
▁Rooms	-11.2371
▁sneeuw	-11.2373
▁Budapest	-11.2373
▁Inflatable	-11.2373
▁Vietnam	-11.2373
▁conferencia	-11.2373
▁economía	-11.2373
▁genuine	-11.2373
▁jardín	-11.2373
▁memoria	-11.2373
▁phríomh	-11.2373
▁Forbartha	-11.2373
▁URL	-11.2373
▁Beijing	-11.2373
▁ejercicio	-11.2373
▁ceiling	-11.2373
▁Donald	-11.2373
▁dochtúir	-11.2373
▁scaoileadh	-11.2373
▁presencia	-11.2373
▁Zondag	-11.2373
▁saoire	-11.2373
▁frostbit	-11.2373
▁Florence	-11.2373
▁escrito	-11.2374
▁Tiarna	-11.2374
▁authorisation	-11.2374
▁tendencia	-11.2374
▁Tabharfa	-11.2374
▁Allowance	-11.2374
▁goedkoopste	-11.2374
▁Return	-11.2374
▁division	-11.2375
▁Información	-11.2375
▁Aantal	-11.2375
▁evenals	-11.2375
▁beginnen	-11.2376
▁1952	-11.2376
▁1986	-11.2376
handel	-11.2377
▁Eireann	-11.2377
▁arrest	-11.2377
zorg	-11.2377
Ge	-11.2378
▁relatie	-11.2379
▁notwithstanding	-11.238
▁comedor	-11.2381
▁1927	-11.2381
▁Bardas	-11.2381
▁calculated	-11.2381
▁méideanna	-11.2383
▁ducha	-11.2384
▁signs	-11.2385
▁fija	-11.2389
cuba	-11.2389
▁Ríocht	-11.239
▁sá	-11.2391
▁aard	-11.2392
▁menor	-11.2393
▁mouth	-11.2396
▁sochair	-11.2396
▁properly	-11.2396
▁enviar	-11.2397
▁Nó	-11.2397
▁ventana	-11.2399
▁populaire	-11.24
▁apparatuur	-11.2401
▁animales	-11.2402
zaam	-11.2403
▁moda	-11.2405
▁pat	-11.2407
gate	-11.2409
▁winkel	-11.2413
▁interact	-11.2413
▁breath	-11.2414
éann	-11.2414
▁vrouwen	-11.2419
▁Medi	-11.242
▁bars	-11.2421
AND	-11.2421
▁preguntas	-11.2422
TT	-11.2426
▁cheannas	-11.2427
steen	-11.243
EK	-11.2435
ising	-11.2436
lite	-11.2444
inch	-11.2444
▁dollar	-11.2446
▁challenge	-11.2446
▁mhaithe	-11.2447
▁diaper	-11.2448
werking	-11.2449
▁pagar	-11.245
direct	-11.2451
itchenware	-11.2452
▁define	-11.2455
▁Leasú	-11.2455
▁electrical	-11.2457
▁ceal	-11.2457
ump	-11.246
▁seconds	-11.2463
▁rij	-11.2464
▁asistencia	-11.2467
▁informed	-11.2467
▁registrar	-11.2472
Bo	-11.2477
▁rein	-11.2479
dora	-11.2479
ITHE	-11.2479
▁términos	-11.248
▁téacs	-11.2481
▁fla	-11.2482
▁piezas	-11.2483
▁orders	-11.2484
▁wave	-11.2486
Tá	-11.249
▁1967,	-11.2491
aireacht	-11.2493
▁bericht	-11.2493
▁Tir	-11.2494
▁promise	-11.2496
rían	-11.2501
▁masa	-11.2501
▁raise	-11.2502
Es	-11.2503
▁delay	-11.2506
▁prof	-11.2507
▁fines	-11.2507
▁Function	-11.2509
0.000	-11.251
tral	-11.2511
▁termina	-11.2512
zocht	-11.2512
visión	-11.2513
amine	-11.2513
▁argument	-11.2516
-200	-11.2517
▁74	-11.2517
▁Bangkok	-11.2518
▁Guatemala	-11.2518
▁Iompair	-11.2518
▁Mientras	-11.2518
▁Protocol	-11.2518
▁células	-11.2518
▁dheonú	-11.2518
▁muscular	-11.2518
▁supplies	-11.2518
▁vosotros	-11.2518
▁Chicago	-11.2518
▁Permanent	-11.2518
▁Chronograph	-11.2518
▁stát	-11.2518
▁aangepast	-11.2518
▁Filter	-11.2518
▁Ainm	-11.2518
▁requiere	-11.2518
▁Innovation	-11.2519
▁submission	-11.2519
EI	-11.2519
▁attractive	-11.2519
▁chóras	-11.252
▁lunes	-11.252
▁Phone	-11.252
▁stability	-11.2521
▁Fógra	-11.2521
▁interpret	-11.2521
▁instalaciones	-11.2521
▁leverancier	-11.2521
▁jacket	-11.2521
▁cláir	-11.2522
▁priority	-11.2522
▁upload	-11.2523
▁mannen	-11.2524
▁Prix	-11.2525
▁England	-11.2525
▁caite	-11.2527
▁finance	-11.2527
▁posted	-11.2528
▁indeed	-11.2528
▁Victoria	-11.2529
mini	-11.253
▁plugin	-11.253
má	-11.2531
▁trein	-11.2532
▁Rules	-11.2532
▁220	-11.2533
▁dosage	-11.2533
▁Ghaeilge	-11.2533
▁cumhachtaí	-11.2533
▁Coast	-11.2534
▁Cleaning	-11.2535
▁vrienden	-11.2535
▁comerciales	-11.2535
▁lin	-11.2535
▁Rial	-11.2536
0%	-11.2536
sky	-11.2537
uaire	-11.2538
▁LI	-11.2539
▁digitale	-11.2539
▁Todo	-11.254
raitheann	-11.2542
FI	-11.2543
▁publish	-11.2543
▁awarded	-11.2544
▁Shop	-11.2544
▁expressed	-11.255
▁dhlí	-11.2551
▁identific	-11.2552
▁solas	-11.2554
▁trá	-11.2554
▁suffering	-11.2558
lum	-11.2559
some	-11.2559
UE	-11.256
iciones	-11.256
▁beoordelingen	-11.2561
COD	-11.2561
▁lake	-11.2562
onne	-11.2565
NN	-11.2567
▁conducted	-11.2568
▁Dry	-11.2568
▁zon	-11.2569
▁Watches	-11.257
bag	-11.2571
▁Nuacht	-11.2572
volle	-11.2574
itan	-11.2577
▁enero	-11.2582
▁Az	-11.2584
▁complaint	-11.2595
▁Spaans	-11.2596
▁áreas	-11.2596
▁arrangement	-11.2597
▁speaking	-11.26
▁decor	-11.2602
▁aice	-11.2603
▁pago	-11.2605
▁dealing	-11.2605
▁neo	-11.2606
£	-11.2612
▁falling	-11.2613
European	-11.2616
▁slu	-11.2617
▁Forest	-11.2618
immer	-11.2626
údar	-11.2629
RY	-11.2631
▁Sé	-11.2632
▁05	-11.2633
▁BR	-11.2636
▁ray	-11.2639
▁denk	-11.264
▁Lev	-11.2642
sport	-11.2645
▁gratuito	-11.2648
▁Korea	-11.2648
Mi	-11.2651
áistí	-11.2654
▁smaller	-11.2656
hof	-11.2656
▁tele	-11.2659
▁victims	-11.2659
rÃ	-11.266
▁ghnótha	-11.2663
▁Artikel	-11.2665
▁Balcony	-11.2665
▁bought	-11.2665
▁cumplir	-11.2665
▁encounter	-11.2665
▁inmhuirearaithe	-11.2665
▁plataforma	-11.2665
▁príobháideach	-11.2665
▁septiembre	-11.2665
▁thalamh	-11.2665
▁árachais	-11.2665
▁trouble	-11.2665
▁Related	-11.2665
▁meaisín	-11.2665
▁remuneration	-11.2665
▁reunión	-11.2665
▁leaving	-11.2665
▁gCuid	-11.2665
▁ancient	-11.2665
▁PhenQ	-11.2665
▁comprehensive	-11.2666
▁statutory	-11.2666
▁alimentación	-11.2666
atellietkanalen	-11.2666
▁replica	-11.2666
▁roghanna	-11.2666
▁Division	-11.2666
▁grace	-11.2666
▁heerlijk	-11.2666
▁gCúirt	-11.2667
▁allemaal	-11.2667
▁sitting	-11.2667
▁expertise	-11.2667
▁cuarto	-11.2668
▁páirtithe	-11.2668
▁ciento	-11.2668
▁Snow	-11.2669
▁Scho	-11.267
▁réidh	-11.2671
▁Nature	-11.2672
lón	-11.2672
fhocal	-11.2673
dale	-11.2673
▁Touch	-11.2674
/5	-11.2674
▁massage	-11.2674
▁táille	-11.2675
wijk	-11.2676
▁féach	-11.2677
▁ice	-11.2678
▁degrees	-11.2678
▁BCO	-11.2679
▁julio	-11.2679
▁eten	-11.268
▁HP	-11.268
▁Dáta	-11.2681
▁Punta	-11.2681
!!!	-11.2681
▁convertir	-11.2682
▁gel	-11.2683
▁tosaigh	-11.2683
▁outlet	-11.2684
▁fail	-11.2684
▁substituted	-11.2686
▁replaced	-11.2686
cinia	-11.2686
▁Planet	-11.2686
▁puerto	-11.2687
▁aistrithe	-11.2688
▁Give	-11.2688
▁(15	-11.2689
▁sterk	-11.2691
▁keeping	-11.2693
▁explained	-11.2693
PR	-11.2694
▁vino	-11.2695
▁shot	-11.2695
▁capac	-11.2697
▁brath	-11.2697
▁Apart	-11.2698
▁vary	-11.2701
CS	-11.2702
mg	-11.2702
▁Audi	-11.2703
▁happen	-11.2703
▁pipe	-11.2704
▁editor	-11.2705
▁Ceann	-11.2706
▁waiting	-11.2706
▁tank	-11.2707
▁faster	-11.2708
▁barrio	-11.2708
▁bezel	-11.2708
375	-11.2709
▁displayed	-11.2712
▁Boy	-11.2712
▁dhe	-11.2714
▁tS	-11.2721
▁88	-11.2721
▁gast	-11.2722
▁Pad	-11.2724
▁Daar	-11.2725
lagen	-11.2725
rar	-11.2727
▁onr	-11.2731
▁abajo	-11.2733
82	-11.2734
▁directors	-11.2736
▁buí	-11.2737
▁resist	-11.2737
▁bone	-11.2737
iocfaidh	-11.2738
▁Maker	-11.2739
▁hole	-11.2747
▁ríomhaire	-11.2749
▁considerable	-11.275
▁stap	-11.275
oba	-11.2751
▁contracts	-11.2751
▁noise	-11.2757
▁UNI	-11.2758
▁heating	-11.2758
▁mayores	-11.2759
ude	-11.2762
▁speakers	-11.2763
zza	-11.2763
school	-11.2763
▁2:	-11.2763
▁mais	-11.2764
▁statements	-11.2765
related	-11.2765
▁83	-11.2774
▁sain	-11.2778
▁Autor	-11.2778
▁estima	-11.278
▁Vis	-11.2781
ERS	-11.2782
▁tea	-11.2783
▁Such	-11.2784
▁technologies	-11.2785
▁Spe	-11.2786
eron	-11.2792
▁Shar	-11.2792
▁gcóra	-11.2794
▁anterior	-11.2795
strat	-11.2796
▁SO	-11.2801
▁Mayo	-11.2802
▁zwak	-11.2803
gle	-11.2803
▁Glass	-11.2807
▁filters	-11.2809
▁configura	-11.281
▁agents	-11.2811
▁Archives	-11.2812
▁revolution	-11.2813
▁siar	-11.2814
▁Scoil	-11.2814
▁CrazyBulk	-11.2814
▁Dianabol	-11.2814
▁Eoraip	-11.2814
▁Iarratas	-11.2814
▁Mallorca	-11.2814
▁balcony	-11.2814
▁dleathach	-11.2814
▁ghnóthú	-11.2814
▁impossible	-11.2814
▁inmheánach	-11.2814
▁pleasure	-11.2814
▁quartz	-11.2814
▁tsuim	-11.2814
▁graag	-11.2814
▁inquiry	-11.2814
▁Yellow	-11.2814
▁chosc	-11.2815
▁identity	-11.2815
▁Hardwood	-11.2815
▁doubt	-11.2815
▁leathnú	-11.2815
▁Samhain	-11.2815
▁gheobhaidh	-11.2815
▁certification	-11.2815
mheas	-11.2817
▁Terug	-11.2817
▁combinatie	-11.2817
▁Important	-11.2817
▁Status	-11.2817
▁tóir	-11.2818
▁capaz	-11.2818
▁LORD	-11.2818
▁modhanna	-11.2818
▁adjustment	-11.2818
▁smart	-11.2818
▁frío	-11.2818
▁Fianá	-11.2818
▁composition	-11.2818
▁eerder	-11.2818
▁Export	-11.2819
▁1932	-11.282
▁Chief	-11.2821
cán	-11.2821
▁89	-11.2821
▁spent	-11.2823
chuir	-11.2824
▁perfil	-11.2824
▁suelo	-11.2824
stick	-11.2825
▁guía	-11.2825
▁ervan	-11.2825
▁sanction	-11.2826
▁behulp	-11.2826
▁tenant	-11.2827
▁Naisc	-11.2828
vy	-11.2828
▁Mayor	-11.2829
▁thou	-11.2831
▁oifigigh	-11.2837
▁resistant	-11.2838
▁networks	-11.2839
▁visiting	-11.2842
▁representa	-11.2844
coming	-11.2844
▁scherm	-11.2849
▁calor	-11.285
▁Style	-11.2856
▁Operation	-11.2857
▁Gene	-11.2858
roinn	-11.2858
ition	-11.2859
▁korte	-11.2859
▁beds	-11.2859
▁circuit	-11.286
▁depends	-11.286
zin	-11.2869
▁thoughts	-11.287
▁71	-11.2874
▁agam	-11.2878
▁Ak	-11.2878
▁aumenta	-11.2878
ood	-11.288
amar	-11.2881
▁sit	-11.2888
▁formas	-11.2888
olie	-11.2888
001	-11.289
ónica	-11.2891
▁owned	-11.2891
last	-11.2894
▁fhoirm	-11.2896
▁Nederlandse	-11.2896
ónde	-11.2897
seachas	-11.2897
vit	-11.2899
▁morgen	-11.2902
▁negocios	-11.2903
▁critic	-11.2905
▁importa	-11.2906
▁sample	-11.2906
▁recording	-11.2908
▁vuelo	-11.2909
▁Lima	-11.2909
▁shain	-11.291
Super	-11.2914
▁principios	-11.2915
▁Unido	-11.2919
")	-11.2923
▁Mul	-11.2926
▁Categories	-11.2926
▁afirma	-11.2929
ş	-11.2931
lex	-11.2941
uli	-11.2944
fold	-11.2944
▁rug	-11.2949
FE	-11.2951
▁naturales	-11.2951
▁plug	-11.2956
▁Pac	-11.2956
▁gener	-11.2956
lash	-11.2956
enberg	-11.2959
card	-11.296
áireamh	-11.2961
▁branch	-11.2963
▁Alemania	-11.2966
▁Certificate	-11.2966
▁Gobierno	-11.2966
▁Iostanbúl	-11.2966
▁Wekservice	-11.2966
▁adequate	-11.2966
▁conseguir	-11.2966
▁gcéanna	-11.2966
▁makkelijk	-11.2966
▁neamhspleách	-11.2966
▁sheachadadh	-11.2966
▁speciaal	-11.2966
▁abierto	-11.2966
▁adecuado	-11.2966
▁concrete	-11.2966
▁título	-11.2966
▁Orlando	-11.2966
▁Sweden	-11.2966
▁audience	-11.2966
▁wound	-11.2966
▁hyper	-11.2966
▁truly	-11.2966
▁plaisteach	-11.2966
▁abroad	-11.2966
▁establecimiento	-11.2966
▁Gallery	-11.2966
▁campaña	-11.2966
▁Third	-11.2966
▁Toeristisch	-11.2966
▁penalty	-11.2966
▁genoeg	-11.2966
gelegd	-11.2966
▁joven	-11.2967
▁mistake	-11.2967
▁colaboración	-11.2967
▁capture	-11.2967
▁replacement	-11.2968
▁Climate	-11.2968
▁tobacco	-11.2968
▁justicia	-11.2968
▁bpoint	-11.297
▁Unión	-11.297
▁1945	-11.297
▁felt	-11.2971
▁stuur	-11.2971
▁Diego	-11.2971
▁Camera	-11.2971
▁bás	-11.2972
▁relaciones	-11.2973
▁zorg	-11.2973
▁dishes	-11.2974
pdf	-11.2975
▁voorbeeld	-11.2976
▁Sector	-11.2977
▁líonra	-11.2977
ologie	-11.2977
▁federal	-11.2977
▁financing	-11.2978
▁anders	-11.2979
▁handling	-11.2979
▁Rev	-11.298
▁BO	-11.2985
▁bhearta	-11.2985
▁SCHEDULE	-11.2986
ush	-11.2989
▁Basic	-11.299
▁recognized	-11.299
▁Email	-11.2991
▁Army	-11.2992
▁dhó	-11.2993
▁OS	-11.2994
▁Server	-11.2995
UI	-11.2996
▁positie	-11.2998
ways	-11.2998
▁fruits	-11.3
▁onge	-11.3003
▁integral	-11.3003
.”.	-11.3004
▁zegt	-11.3008
▁Programa	-11.3008
▁airgeadra	-11.3008
scheid	-11.3009
▁wash	-11.3011
UU	-11.3015
▁prácticas	-11.3017
▁missing	-11.3017
▁Sí	-11.3019
▁Et	-11.302
▁(21	-11.302
wit	-11.3021
▁(16	-11.3023
ética	-11.3023
▁IC	-11.3024
▁estrellas	-11.3025
▁mooi	-11.3028
▁estoy	-11.3029
▁finding	-11.3033
AY	-11.3037
ieten	-11.3039
cons	-11.3044
▁olie	-11.3045
▁deseo	-11.3049
▁OK	-11.305
▁Phen	-11.3055
▁Ná	-11.3055
▁dogs	-11.3056
▁conclusion	-11.3059
▁robot	-11.306
▁Remo	-11.3061
▁Mate	-11.3062
▁eol	-11.3067
deliver	-11.3068
▁Otros	-11.3069
beeld	-11.307
▁centros	-11.3073
▁ort	-11.3073
▁reform	-11.3074
▁starts	-11.3075
▁81	-11.3079
▁Vista	-11.3082
▁aseo	-11.3082
▁desk	-11.3084
▁Cru	-11.3085
▁Glac	-11.3086
home	-11.3088
▁industrie	-11.309
▁basa	-11.3091
▁Thus	-11.3096
Ver	-11.3097
▁propose	-11.3098
tial	-11.3098
iya	-11.3099
▁African	-11.3102
▁Eo	-11.3103
ington	-11.3104
▁estándar	-11.3105
▁vloer	-11.3106
uv	-11.3106
▁monaróir	-11.3108
▁Especial	-11.3111
▁stiúrthóir	-11.3113
airgead	-11.3113
:2	-11.3113
▁Present	-11.3115
▁ervaring	-11.3117
▁Gníomh	-11.3119
▁thick	-11.3119
▁Encuentr	-11.312
▁Gabriel	-11.312
▁Koffie	-11.312
▁Strategy	-11.312
▁algemeen	-11.312
▁behavior	-11.312
▁januari	-11.312
▁mhargadh	-11.312
▁receiving	-11.312
▁scratch	-11.312
▁stijging	-11.312
▁mezcla	-11.312
▁necklace	-11.312
▁Pablo	-11.312
▁airconditioning	-11.312
▁teoranta	-11.312
▁Chrome	-11.312
▁universe	-11.312
▁delicious	-11.312
▁sealadach	-11.312
▁instalación	-11.312
▁Tamaño	-11.312
▁antwoord	-11.312
▁Kunst	-11.312
▁labour	-11.312
▁uaidh	-11.312
▁Brown	-11.312
xxx	-11.312
▁Iraq	-11.312
▁remind	-11.312
▁serving	-11.312
▁haciendo	-11.312
▁Prague	-11.3121
▁wholesalers	-11.3121
▁Little	-11.3121
▁Tribunal	-11.3121
▁execution	-11.3121
▁Evolution	-11.3121
▁Treatment	-11.3121
▁titim	-11.3121
▁webcam	-11.3122
▁existencia	-11.3122
▁gráfico	-11.3122
▁1956	-11.3122
▁supplied	-11.3122
▁generator	-11.3122
▁jouw	-11.3123
▁nearby	-11.3123
▁throw	-11.3123
▁scoileanna	-11.3124
▁mogelijkheid	-11.3124
▁neutral	-11.3125
▁liúntais	-11.3127
▁ojos	-11.3128
▁inclusief	-11.313
▁1919	-11.313
▁ainmhithe	-11.3131
▁measurement	-11.3131
▁Strap	-11.3131
▁Washing	-11.3131
mov	-11.3131
▁contrary	-11.3132
▁Charter	-11.3132
▁breis	-11.3133
itor	-11.3133
▁therapy	-11.3133
▁PST	-11.3135
▁instant	-11.3135
▁choiste	-11.3141
íocha	-11.3141
▁XL	-11.3144
▁raised	-11.3145
▁vloeren	-11.3147
▁periods	-11.3147
▁gains	-11.3149
▁acquired	-11.315
case	-11.3151
▁Scan	-11.3151
▁trips	-11.3156
▁Sk	-11.3156
Resume	-11.3157
▁gcuirf	-11.3157
▁líonadh	-11.3157
▁lever	-11.3162
ats	-11.3169
arán	-11.317
▁maoine	-11.317
▁waarme	-11.3173
▁selectie	-11.3176
agua	-11.318
▁recomenda	-11.318
▁guaranteed	-11.3182
made	-11.3189
ör	-11.3193
mac	-11.3194
▁pers	-11.3198
▁bhF	-11.3199
▁GB	-11.3201
ilí	-11.3203
▁río	-11.3203
▁PP	-11.3209
▁tacaíochta	-11.3209
▁goals	-11.3211
▁CL	-11.3213
▁straitéis	-11.3213
spa	-11.3214
▁Base	-11.3215
▁Appeal	-11.3216
▁windows	-11.3216
▁substance	-11.3216
▁defend	-11.3217
open	-11.3218
print	-11.3223
▁Provide	-11.3226
▁Rub	-11.3226
▁TH	-11.3228
▁Ap	-11.3228
PDF	-11.3229
uta	-11.3229
▁mente	-11.3233
▁sonido	-11.3234
-25	-11.3235
nacht	-11.3238
▁chomhlacht	-11.3238
▁mhe	-11.3241
▁goud	-11.3241
▁mate	-11.3244
▁fógraí	-11.3245
riú	-11.3245
kzij	-11.3245
▁surround	-11.3246
▁trail	-11.3249
itheach	-11.3249
▁offic	-11.325
▁Youth	-11.325
▁AT	-11.3251
▁techniques	-11.3256
▁replace	-11.3257
▁furnish	-11.3257
▁grand	-11.3258
▁cook	-11.3261
▁Regi	-11.3262
▁BA	-11.3264
▁seomra	-11.3265
▁hoger	-11.3265
▁immediate	-11.3266
▁sú	-11.3266
▁combine	-11.3268
▁Chlár	-11.3268
▁continuous	-11.3269
▁parque	-11.3272
▁chéim	-11.3273
▁Way	-11.3274
▁Hamburg	-11.3276
▁Chosaint	-11.3276
▁Harbour	-11.3276
▁Illinois	-11.3276
▁Keukengerei	-11.3276
▁Londres	-11.3276
▁Registration	-11.3276
▁Residence	-11.3276
▁decisión	-11.3276
▁dhiailiú	-11.3276
▁disminuye	-11.3276
▁mórdhíola	-11.3276
▁perhaps	-11.3276
▁síntomas	-11.3276
▁taispeáint	-11.3276
▁thaispeáint	-11.3276
▁zonsondergang	-11.3276
▁incluir	-11.3276
▁worry	-11.3276
▁oplossing	-11.3276
▁breast	-11.3276
▁teastáil	-11.3276
▁arriba	-11.3276
▁telephone	-11.3276
▁violence	-11.3276
▁meerdere	-11.3276
▁Keyword	-11.3276
▁Údaráis	-11.3276
▁leighis	-11.3276
▁guidelines	-11.3276
▁blijft	-11.3276
▁diameter	-11.3276
▁tráchtála	-11.3276
▁inmediatamente	-11.3277
▁Comhalta	-11.3277
▁ordaithe	-11.3277
▁propuesta	-11.3277
▁milliún	-11.3277
▁mórdhíoltóirí	-11.3277
▁spray	-11.3278
▁médica	-11.3278
▁awareness	-11.3278
▁Salud	-11.3278
▁Connectable	-11.3278
▁huidige	-11.3278
▁réasúnta	-11.3278
▁1969	-11.3279
▁thíos	-11.3279
▁Police	-11.3279
▁táillí	-11.3279
▁1934	-11.328
▁outcome	-11.328
▁invent	-11.3281
▁bhfaigh	-11.3282
▁recognize	-11.3283
▁Gracias	-11.3283
▁cruz	-11.3283
▁cuspóirí	-11.3283
▁estancia	-11.3284
▁hetzelfde	-11.3284
▁oiliúint	-11.3285
▁chief	-11.3285
▁geschiedenis	-11.3286
▁cialluí	-11.3286
▁marcha	-11.3287
▁Cada	-11.3288
▁bur	-11.3289
▁providers	-11.3289
▁rolex	-11.3289
▁Parties	-11.329
▁theacht	-11.3291
▁Flashlights	-11.3291
gie	-11.3291
▁crua	-11.3293
▁fá	-11.3293
ofa	-11.3293
apa	-11.3295
eál	-11.3296
▁happened	-11.3296
▁deleted	-11.3296
▁sick	-11.3296
▁Caja	-11.3298
▁Dúin	-11.3299
▁downloaden	-11.3302
iggest	-11.3302
▁collected	-11.3302
▁Campo	-11.3303
▁usage	-11.3303
▁begins	-11.3304
▁Michel	-11.3305
▁leathan	-11.3306
▁conform	-11.3306
▁zonas	-11.3307
▁Vote	-11.3307
▁Their	-11.3307
▁Coda	-11.3309
▁finished	-11.3311
▁Bush	-11.3312
▁filled	-11.3317
▁gcomhar	-11.332
▁Geo	-11.3321
tent	-11.3323
hain	-11.3323
▁concern	-11.3327
-11	-11.3329
ejo	-11.333
WD	-11.3331
▁nearly	-11.3332
▁mesa	-11.3332
▁tried	-11.3334
stein	-11.3335
gran	-11.3335
▁Sony	-11.3338
wall	-11.3341
▁piste	-11.3342
▁materialen	-11.3342
▁photograph	-11.3345
▁regarded	-11.3349
▁enkel	-11.335
▁95	-11.3353
gebied	-11.3355
▁dár	-11.3356
managing	-11.3363
borg	-11.3364
▁buscar	-11.3365
luaidhtear	-11.3365
▁demanda	-11.3366
ionad	-11.3371
▁mechanism	-11.3376
▁puerta	-11.3376
▁portal	-11.3377
▁descarga	-11.3377
▁medication	-11.3378
anos	-11.338
▁pray	-11.338
▁Wit	-11.3382
▁sending	-11.3386
▁cancel	-11.3388
▁mes	-11.3389
▁padre	-11.3391
▁investiga	-11.3399
▁materia	-11.3402
▁bead	-11.3402
▁cén	-11.3402
▁Merc	-11.3402
▁onderhoud	-11.3403
▁garantizar	-11.3403
▁alert	-11.3403
▁integr	-11.3404
▁rela	-11.3408
zado	-11.3408
▁casinos	-11.3408
▁ride	-11.341
▁declare	-11.3413
dina	-11.3418
speler	-11.3418
bak	-11.3419
▁indoor	-11.342
Th	-11.3422
▁Additional	-11.3425
▁functie	-11.3425
▁Busca	-11.3425
thu	-11.3425
▁Convert	-11.3427
cada	-11.3431
día	-11.3432
▁sprioc	-11.3433
▁teorainn	-11.3434
▁Accessories	-11.3435
▁Democrats	-11.3435
▁Equipamiento	-11.3435
▁Espíritu	-11.3435
▁Jerusalem	-11.3435
▁Supreme	-11.3435
▁Wholesale	-11.3435
▁cuardaigh	-11.3435
▁específico	-11.3435
▁espíritu	-11.3435
▁ontvangen	-11.3435
▁rannpháirteach	-11.3435
▁publiek	-11.3435
▁speech	-11.3435
▁Forecast	-11.3435
▁Federal	-11.3435
▁bunaidh	-11.3435
▁idioma	-11.3435
▁changing	-11.3435
▁temporada	-11.3435
▁útil	-11.3435
▁magazine	-11.3435
▁Áitiúil	-11.3435
▁lunch	-11.3435
▁hoeveelheid	-11.3435
▁robust	-11.3435
▁física	-11.3435
▁beagnach	-11.3435
▁ontwikkeld	-11.3435
▁Performance	-11.3435
▁Patrick	-11.3435
▁dangerous	-11.3435
▁myself	-11.3436
▁thinking	-11.3436
▁Update	-11.3436
▁expresa	-11.3436
▁participating	-11.3437
▁gcuirfear	-11.3437
4%	-11.3438
2000	-11.3438
▁Course	-11.3438
▁(24	-11.3438
▁covers	-11.3438
▁maart	-11.3439
▁sócmhainní	-11.3439
▁shade	-11.3439
▁háit	-11.3441
▁string	-11.3441
▁azul	-11.3441
2016	-11.3442
▁Baño	-11.3443
▁whatever	-11.3444
▁Colorado	-11.3444
▁1940	-11.3444
▁Solid	-11.3444
▁Haag	-11.3445
▁shuíomh	-11.3445
▁bP	-11.3447
▁Nieuw	-11.3449
presión	-11.3451
tovetop	-11.3451
aars	-11.3451
▁thuis	-11.3451
▁revealed	-11.3452
▁tienes	-11.3453
6)	-11.3454
rando	-11.3455
▁agreements	-11.3456
▁20%	-11.3457
▁dorp	-11.3458
▁prize	-11.346
▁Eu	-11.3462
▁becoming	-11.3464
▁Dra	-11.3465
ONS	-11.3465
▁suí	-11.3467
ander	-11.3467
▁bescherming	-11.3469
▁Adam	-11.3473
▁Achtanna	-11.3478
▁Files	-11.3481
▁notify	-11.3482
▁800	-11.3482
▁Holland	-11.3483
tero	-11.3488
▁kill	-11.349
▁revis	-11.3491
▁tend	-11.3491
▁Cost	-11.3492
▁(20	-11.3493
namh	-11.3493
▁maoin	-11.3494
jer	-11.3496
itheoirí	-11.3498
wol	-11.3499
▁featured	-11.35
▁wants	-11.3502
▁larger	-11.3506
ulate	-11.3509
▁delen	-11.351
▁isla	-11.3511
san	-11.3513
▁challenges	-11.3514
▁cionn	-11.3515
▁j	-11.3516
zak	-11.3517
▁procesos	-11.352
▁Yu	-11.3521
vet	-11.3522
FT	-11.3523
▁teas	-11.3524
▁laser	-11.3531
▁zuid	-11.3536
▁grants	-11.3538
▁verwijderd	-11.3538
▁dócha	-11.3539
▁económica	-11.354
▁wereldwijd	-11.3543
▁mens	-11.3543
PD	-11.3543
▁Tuirc	-11.3543
\	-11.3543
National	-11.3544
AF	-11.3544
▁bhreis	-11.3544
▁viewing	-11.3545
fháil	-11.3549
▁("	-11.3549
▁recept	-11.3551
▁exception	-11.3551
▁routes	-11.3552
class	-11.3553
OST	-11.3553
▁ustedes	-11.3554
▁190	-11.3556
heim	-11.3556
2:	-11.3557
▁Exp	-11.356
▁dating	-11.3561
▁buying	-11.3564
▁priest	-11.3564
▁316	-11.3567
foto	-11.3571
▁vlucht	-11.3571
▁engage	-11.3572
▁UE	-11.3572
tage	-11.3572
TION	-11.3573
▁Prices	-11.3573
▁SH	-11.3574
▁pon	-11.3574
▁artista	-11.3575
▁trabaja	-11.3575
▁loved	-11.3577
▁mhodh	-11.3578
▁destroy	-11.3578
▁Maan	-11.3578
▁fuaime	-11.3583
▁Friend	-11.3586
will	-11.3587
úcháin	-11.3587
grade	-11.3589
piste	-11.3589
▁walls	-11.359
Cu	-11.3593
▁einde	-11.3594
eck	-11.3594
▁Import	-11.3595
FO	-11.3595
▁neighbor	-11.3596
▁Materiaal	-11.3596
▁Purchase	-11.3596
▁appreciate	-11.3596
▁automático	-11.3596
▁barcelona	-11.3596
▁ceadúnais	-11.3596
▁cuestión	-11.3596
▁decrease	-11.3596
▁nuclear	-11.3596
▁slándála	-11.3596
▁tionscail	-11.3596
▁varieties	-11.3596
▁Swiss	-11.3596
▁Which	-11.3596
▁genoemd	-11.3596
▁signature	-11.3596
▁improving	-11.3596
▁Leather	-11.3596
▁aggregate	-11.3596
▁certified	-11.3596
▁teorann	-11.3596
▁Magazine	-11.3596
▁Vrijdag	-11.3596
▁april	-11.3596
▁yield	-11.3596
▁Shipping	-11.3596
▁entorno	-11.3596
▁Complete	-11.3596
▁descend	-11.3596
▁thuas	-11.3597
▁parameters	-11.3597
▁Effect	-11.3597
▁estimated	-11.3597
▁Nollag	-11.3597
▁uitgevoerd	-11.3597
▁daarvan	-11.3598
▁cadena	-11.3598
▁1987	-11.3598
▁Better	-11.3599
▁detection	-11.36
▁vuelta	-11.3601
▁bpost	-11.3602
▁Oc	-11.3603
▁passage	-11.3603
▁divided	-11.3604
▁leiden	-11.3604
▁nine	-11.3605
▁cubierta	-11.3606
▁iascaireachta	-11.3606
▁negro	-11.3606
ática	-11.3608
▁voz	-11.3611
▁Panel	-11.3612
▁1993	-11.3612
▁apparaat	-11.3613
▁anteriores	-11.3614
▁asunto	-11.3615
▁encontrará	-11.3616
entregue	-11.3618
▁Grey	-11.3618
trans	-11.3619
▁Dark	-11.3619
isatie	-11.3619
▁Cum	-11.3619
▁Looking	-11.3619
▁blade	-11.3619
▁stores	-11.3619
▁betaling	-11.3622
5,000	-11.3622
▁moest	-11.3622
▁highlight	-11.3623
▁1976,	-11.3623
▁leveren	-11.3625
▁componentes	-11.3626
▁elegante	-11.3627
▁oibreacha	-11.3627
cina	-11.3627
▁representation	-11.3629
▁kom	-11.3631
▁contest	-11.3631
stellen	-11.3632
▁Mom	-11.3632
▁podía	-11.3633
▁widely	-11.3633
▁Ina	-11.3636
▁Ciste	-11.3636
mission	-11.3639
▁korting	-11.364
▁didn	-11.3641
▁Month	-11.3642
2011	-11.3643
eria	-11.3647
▁pri	-11.3649
▁trends	-11.3649
▁presentar	-11.3652
▁reward	-11.3656
▁earn	-11.3656
▁puesta	-11.3657
▁Níor	-11.366
▁Ul	-11.366
▁sofa	-11.366
▁remaining	-11.366
▁Noll	-11.3663
▁Logo	-11.3663
▁clárú	-11.3664
▁gang	-11.3667
▁elections	-11.3667
▁echte	-11.3668
▁Mat	-11.3669
▁Found	-11.3671
▁helped	-11.3673
▁moved	-11.3673
▁begint	-11.3674
how	-11.3678
▁11,	-11.3679
▁Terras	-11.3685
ELL	-11.3686
Go	-11.3688
▁Aug	-11.3689
▁zu	-11.3689
▁FL	-11.369
▁liggen	-11.369
▁corta	-11.369
wagen	-11.3691
▁Presidente	-11.3696
sville	-11.3696
▁Fast	-11.3697
laigh	-11.3702
▁Está	-11.3705
PI	-11.3705
▁SW	-11.3705
▁occur	-11.3706
▁oscailt	-11.3707
▁técnica	-11.3707
active	-11.3709
▁workshop	-11.371
▁Thank	-11.3711
▁discussion	-11.3711
▁Artist	-11.3712
▁structures	-11.3713
▁fre	-11.3714
▁ogen	-11.3716
▁conoce	-11.3717
take	-11.3718
▁opge	-11.3719
hour	-11.3719
DO	-11.372
▁rob	-11.3722
▁perfecto	-11.3725
BE	-11.3725
mart	-11.3726
▁nachts	-11.3726
▁consequences	-11.3728
▁sonrach	-11.373
ITE	-11.373
▁z	-11.3731
▁Ley	-11.3731
▁washing	-11.3733
▁kwam	-11.3735
▁Sud	-11.3736
▁incident	-11.3737
worth	-11.3738
▁abuse	-11.3738
range	-11.3738
▁tent	-11.3742
▁fide	-11.3743
meer	-11.3743
▁líder	-11.3744
nov	-11.3745
▁cúirte	-11.3748
▁Grande	-11.3749
▁kant	-11.375
▁Journal	-11.3751
ographic	-11.3752
▁Did	-11.3753
▁Lúnasa	-11.376
▁amplio	-11.376
▁bastante	-11.376
▁betrekking	-11.376
▁carácter	-11.376
▁compromiso	-11.376
▁etiqueta	-11.376
▁thairiscint	-11.376
▁vuestro	-11.376
▁wrote	-11.376
▁fragment	-11.376
▁adhmaid	-11.376
▁anailís	-11.376
▁composed	-11.376
▁opinión	-11.376
▁plástico	-11.376
▁cotton	-11.376
▁Zwart	-11.376
▁Amerikaanse	-11.376
▁elektrische	-11.376
▁rapporteur	-11.376
▁noticias	-11.376
▁Summer	-11.376
▁Carolina	-11.376
▁tarmligthe	-11.376
▁Quartz	-11.3761
▁Wireless	-11.3761
▁surgery	-11.3761
▁malware	-11.3761
▁cultivation	-11.3761
▁inicio	-11.3762
▁1982	-11.3762
▁Among	-11.3763
▁render	-11.3763
▁Keep	-11.3763
▁anuas	-11.3764
▁Cruach	-11.3764
▁leathanach	-11.3764
▁carrera	-11.3765
▁watt	-11.3765
▁difear	-11.3766
▁míreanna	-11.3766
▁liber	-11.3766
▁Dominican	-11.3766
▁Happy	-11.3768
▁tenido	-11.3769
▁Latina	-11.3771
plat	-11.3772
dado	-11.3772
▁Profile	-11.3773
▁tabla	-11.3775
qué	-11.3775
▁reachtaíocht	-11.3777
▁pueblos	-11.3777
Het	-11.3777
▁permiten	-11.3777
▁eagraíocht	-11.3777
bras	-11.3778
▁specifieke	-11.3779
▁CC	-11.378
▁ends	-11.3781
▁basado	-11.3781
▁pues	-11.3784
rew	-11.3786
▁Less	-11.3787
▁kabel	-11.3793
▁marked	-11.3794
▁Productos	-11.3797
▁langer	-11.3798
▁sonracha	-11.3799
uter	-11.3803
lino	-11.3804
▁banks	-11.3808
▁factores	-11.3809
dies	-11.3809
▁Zon	-11.3812
ison	-11.3814
itaria	-11.3814
▁Poly	-11.3816
▁10%	-11.3819
▁Soft	-11.3819
nova	-11.382
lamp	-11.3822
▁Banc	-11.3822
houder	-11.3823
▁drinking	-11.3823
▁cor	-11.3823
▁wijze	-11.3827
▁ceadú	-11.3829
▁stijl	-11.3832
AMH	-11.3835
ome	-11.3838
▁reserve	-11.3841
▁bac	-11.3841
▁gala	-11.3841
chais	-11.3846
▁Sint	-11.3847
HS	-11.3848
▁nea	-11.385
mine	-11.385
EAR	-11.3851
▁Gall	-11.3859
▁Gel	-11.3863
▁threat	-11.3864
▁seis	-11.3867
▁addressed	-11.387
▁operators	-11.3871
▁drivers	-11.3871
▁dedica	-11.3874
debate	-11.3874
▁prachtig	-11.3874
control	-11.3875
▁Islam	-11.3875
▁Lav	-11.3875
roep	-11.3876
▁miembro	-11.3878
▁diferente	-11.3878
▁walking	-11.3881
▁denken	-11.3882
woord	-11.3883
▁carne	-11.3884
naigh	-11.3885
eitheamh	-11.3885
▁Teacher	-11.3886
▁holidays	-11.3889
ándose	-11.3892
▁apps	-11.3893
trekken	-11.3893
▁61	-11.3894
▁spoke	-11.3897
%)	-11.39
own	-11.3903
▁servers	-11.3903
zijde	-11.3904
▁vegetables	-11.3909
esión	-11.3912
▁Tin	-11.3913
▁resid	-11.3915
▁knowing	-11.3917
cord	-11.3918
▁CM	-11.3919
▁moderno	-11.3921
▁Feidhm	-11.3925
▁Create	-11.3925
▁Oostenrijk	-11.3926
▁Turkish	-11.3926
▁Zaterdag	-11.3926
▁chocolate	-11.3926
▁diccionario	-11.3926
▁expensive	-11.3926
▁fadhbanna	-11.3926
▁fantastic	-11.3926
▁library	-11.3926
▁protocol	-11.3926
▁qualification	-11.3926
▁uirthi	-11.3926
▁FÁS	-11.3927
▁garantie	-11.3927
▁sunrise	-11.3927
▁Airgid	-11.3927
▁crucial	-11.3927
▁enfrenta	-11.3927
▁illegal	-11.3927
▁leithligh	-11.3927
▁Perfect	-11.3927
▁aluminum	-11.3927
▁veranderen	-11.3927
▁scope	-11.3927
▁lectura	-11.3927
▁Living	-11.3927
▁1974	-11.3927
▁tejido	-11.3927
▁precipitaciones	-11.3927
▁dinner	-11.3927
▁Plaats	-11.3927
▁sharp	-11.3927
▁schijf	-11.3927
▁lettertype	-11.3927
▁bogearraí	-11.3927
▁Fiesta	-11.3927
▁durable	-11.3928
▁crann	-11.3928
▁reloj	-11.3928
▁vereist	-11.3928
▁bunaíodh	-11.3928
▁theannta	-11.3928
▁agóid	-11.3929
▁Edition	-11.3929
▁stuff	-11.3929
▁Kiev	-11.393
▁hoeft	-11.393
▁hearraí	-11.393
▁1959	-11.393
▁Pierre	-11.3931
▁terceros	-11.3931
▁1975	-11.3931
▁copper	-11.3932
▁regio	-11.3932
▁organize	-11.3932
▁Dus	-11.3933
▁vend	-11.3933
▁Manual	-11.3933
▁utilizando	-11.3934
▁neck	-11.3935
▁identified	-11.3937
▁Mother	-11.3937
▁witte	-11.3937
▁attached	-11.3937
▁actualmente	-11.3939
▁registry	-11.3939
▁Porto	-11.394
▁Engineering	-11.394
▁Drug	-11.394
▁vivienda	-11.3942
▁totaal	-11.3946
▁retro	-11.3947
▁gama	-11.3948
▁asset	-11.3948
▁gewicht	-11.3953
dien	-11.3953
9%	-11.3954
teren	-11.3956
▁garantiza	-11.396
▁Mexican	-11.396
▁Payments	-11.3962
▁predict	-11.3962
▁bloed	-11.3964
▁Parking	-11.3965
▁zaken	-11.3966
▁Rod	-11.3966
▁marzo	-11.3969
▁registr	-11.397
▁proteger	-11.3971
▁míle	-11.3972
▁sección	-11.3973
▁Día	-11.3976
loe	-11.3976
▁servidor	-11.3976
isiú	-11.3983
▁valores	-11.3983
▁actie	-11.3985
▁Kom	-11.3988
▁glad	-11.3988
zone	-11.3989
▁shoot	-11.399
▁competi	-11.3991
▁Jud	-11.3992
mpel	-11.3996
▁Saoir	-11.3996
▁sizes	-11.3997
jó	-11.3998
▁oficial	-11.3999
chtaí	-11.4
▁deich	-11.4003
▁Emp	-11.4003
RD	-11.4003
▁sy	-11.4007
▁dtiocfa	-11.4007
If	-11.4007
life	-11.4007
ory	-11.4008
▁sn	-11.4012
...]	-11.4013
▁boxes	-11.4016
▁weken	-11.4019
▁beide	-11.4019
▁colours	-11.4021
▁forex	-11.4022
▁detalles	-11.4026
▁Mah	-11.4033
▁taitneamh	-11.4033
▁proven	-11.4038
▁scríobh	-11.4041
neoidh	-11.4042
▁"...	-11.4043
▁Heer	-11.4048
kelijk	-11.4049
▁gevoel	-11.4052
▁imeacht	-11.4059
éirí	-11.406
puesta	-11.4062
▁standing	-11.4065
▁birds	-11.4067
▁Results	-11.4071
▁depende	-11.4073
Córas	-11.4075
▁ill	-11.4075
▁Systems	-11.4076
▁Anna	-11.4078
300	-11.4078
deren	-11.4081
▁sociale	-11.4084
▁inspir	-11.4084
CK	-11.4087
▁occupation	-11.4087
iber	-11.4087
▁consumers	-11.4089
▁leuk	-11.409
kom	-11.4092
▁mhéad	-11.4093
ológico	-11.4093
▁gcomhlíon	-11.4094
▁roghna	-11.4094
▁Protect	-11.4094
ğ	-11.4096
▁Vloerbedekking	-11.4096
▁compound	-11.4096
▁confianza	-11.4096
▁definitely	-11.4096
▁encuentro	-11.4096
▁feithiclí	-11.4096
▁histórico	-11.4096
▁liabilities	-11.4096
▁occupier	-11.4096
▁perspective	-11.4096
▁complejo	-11.4096
▁disponibilidad	-11.4096
▁género	-11.4096
▁Movement	-11.4096
▁Similar	-11.4096
▁scannáin	-11.4096
▁Lawyers	-11.4096
▁ignora	-11.4096
▁Should	-11.4096
▁conocida	-11.4096
▁1972	-11.4096
▁staidéar	-11.4096
▁helemaal	-11.4096
▁aceite	-11.4096
▁archive	-11.4097
▁foirgneamh	-11.4097
▁transmission	-11.4097
oifig	-11.4097
▁Height	-11.4098
▁outstanding	-11.4098
▁segment	-11.4098
▁ceapadh	-11.4098
▁bunúsach	-11.4098
▁quantity	-11.4099
▁Bird	-11.41
▁permitted	-11.41
▁Español	-11.4101
egu	-11.4102
▁treoir	-11.4103
▁compare	-11.4103
▁chilly	-11.4103
▁slán	-11.4103
▁simula	-11.4103
▁Yoga	-11.4104
▁diep	-11.4105
▁opgenomen	-11.4106
▁partly	-11.4106
▁lounge	-11.4107
gem	-11.4107
▁Duration	-11.4107
▁voet	-11.4107
▁Institiúid	-11.4109
▁waarom	-11.4111
▁invited	-11.4114
page	-11.4117
▁mogelijkheden	-11.4117
año	-11.4118
▁125	-11.4119
▁thréimhse	-11.412
▁despite	-11.412
▁mol	-11.4121
▁PART	-11.4122
▁scheduled	-11.4124
athair	-11.4125
▁answers	-11.4126
VER	-11.413
▁styles	-11.4131
bheart	-11.4131
▁Communications	-11.4131
▁pier	-11.4133
▁tas	-11.4136
▁keys	-11.4137
▁tablets	-11.4138
▁Prime	-11.414
▁bound	-11.4141
ectie	-11.4141
ireann	-11.4142
▁Léir	-11.4142
Per	-11.4142
▁Anne	-11.4143
jos	-11.4143
▁oral	-11.4144
3)	-11.4145
▁Anal	-11.4146
oibrithe	-11.4146
▁roots	-11.4147
CB	-11.415
▁confirmed	-11.415
minal	-11.4151
▁cuideachtaí	-11.4154
▁perfectly	-11.4155
▁tip	-11.4155
▁roth	-11.4156
▁tionónta	-11.4156
▁represented	-11.4159
▁novel	-11.416
▁tharraingt	-11.4161
▁Hace	-11.4162
eman	-11.4163
▁MB	-11.4164
▁cab	-11.4165
▁china	-11.4167
▁Penal	-11.4167
▁wearing	-11.4169
▁emissions	-11.417
▁prophet	-11.4171
▁stu	-11.4171
▁Warm	-11.4173
ojo	-11.4173
▁officials	-11.4174
Cuál	-11.4181
▁kilometers	-11.4181
▁struchtúr	-11.4182
DD	-11.4184
▁FC	-11.4186
▁Qua	-11.4186
▁centrale	-11.4187
▁gal	-11.4189
spons	-11.4197
FF	-11.4198
▁PM	-11.4198
baan	-11.4204
▁falls	-11.4204
▁Estate	-11.4207
▁Ple	-11.421
▁attractions	-11.4213
ERN	-11.4213
Coffee	-11.4216
oireachta	-11.4217
fully	-11.4218
(5)	-11.4221
▁Spin	-11.4222
120	-11.4226
▁ieder	-11.4228
▁scoile	-11.4228
▁TE	-11.4228
▁afge	-11.4228
▁Bob	-11.423
▁regen	-11.423
▁Temp	-11.4231
bury	-11.4232
komt	-11.4235
▁militar	-11.4239
▁Bul	-11.424
▁firma	-11.4242
▁recib	-11.4243
▁1976	-11.4244
▁Used	-11.4244
cot	-11.4245
▁reveal	-11.425
▁bueno	-11.4251
▁Mail	-11.4254
▁Discover	-11.4256
▁Pod	-11.4258
omet	-11.4259
▁Burg	-11.4261
▁descubr	-11.4262
▁gcríoch	-11.4266
▁excess	-11.4267
isghairtear	-11.4268
▁Frankfurt	-11.4268
▁Moscow	-11.4268
▁Vehicle	-11.4268
▁chugainn	-11.4268
▁invierno	-11.4268
▁mirror	-11.4268
▁montaña	-11.4268
▁template	-11.4268
▁voluntad	-11.4268
▁adecuada	-11.4268
▁contempla	-11.4268
▁discretion	-11.4268
▁guidance	-11.4268
Construccion	-11.4268
▁absence	-11.4268
▁Balkon	-11.4268
▁paquete	-11.4268
▁saincheaptha	-11.4268
▁Wekker	-11.4268
▁annuity	-11.4268
▁delegation	-11.4268
▁pearl	-11.4268
▁Procurador	-11.4268
▁thuilleadh	-11.4268
▁Domingo	-11.4269
▁cosmetic	-11.4269
▁pronto	-11.4269
▁Feidhmiúcháin	-11.4269
▁alternativa	-11.4269
▁figura	-11.4269
▁analytics	-11.4269
▁fishery	-11.4269
▁provoca	-11.4269
▁Informatie	-11.427
▁copies	-11.427
▁aandacht	-11.427
▁spreagadh	-11.427
▁bebé	-11.427
▁dlífear	-11.427
▁plaza	-11.427
▁Chairman	-11.427
▁Rialacha	-11.427
▁feitheamh	-11.427
▁Creative	-11.4271
▁planned	-11.4271
▁heldere	-11.4271
▁1981	-11.4271
▁incentiv	-11.4271
▁encanta	-11.4271
▁istigh	-11.4272
▁invloed	-11.4272
▁Safe	-11.4272
▁naked	-11.4272
▁1983	-11.4272
▁Castro	-11.4272
aistriú	-11.4273
▁usual	-11.4273
▁1936	-11.4274
▁chomhairle	-11.4275
▁quota	-11.4276
▁controlled	-11.4277
▁frequently	-11.4277
hop	-11.4277
▁corto	-11.4279
▁PS	-11.4279
▁Layer	-11.428
▁harm	-11.4281
▁documentation	-11.4282
▁objection	-11.4282
▁danger	-11.4283
▁renova	-11.4283
avi	-11.4284
▁increases	-11.4285
▁fly	-11.4286
▁Guard	-11.4287
▁sleutel	-11.4287
▁ziekte	-11.4288
▁middag	-11.4288
▁Austin	-11.4289
▁Valley	-11.4289
▁vermogen	-11.4293
▁computers	-11.4293
▁Forex	-11.4293
▁iniúchadh	-11.4294
▁Lock	-11.4295
luach	-11.4295
▁visto	-11.4296
▁consumo	-11.4297
▁Client	-11.4297
phy	-11.4297
▁plano	-11.43
▁arrived	-11.4302
▁acto	-11.4303
▁broken	-11.4303
▁pant	-11.4306
▁meestal	-11.4307
quin	-11.4308
naar	-11.4309
▁ceachta	-11.4309
▁leabhair	-11.4309
▁bhall	-11.431
▁viajes	-11.4311
áid	-11.4315
ön	-11.4316
elingen	-11.4318
▁Nik	-11.4319
▁threats	-11.432
▁3:	-11.4321
▁appeared	-11.4322
othair	-11.4322
▁Matt	-11.4323
▁workshops	-11.4325
gegeven	-11.4326
▁personales	-11.4328
▁(0)	-11.4331
▁nacionales	-11.4334
▁bhreith	-11.4335
▁Vari	-11.4335
▁rear	-11.4336
▁éard	-11.4336
Mon	-11.4337
lder	-11.4338
▁wage	-11.4339
oireacht	-11.434
ony	-11.434
▁filling	-11.4342
laag	-11.4343
▁luas	-11.4344
▁architect	-11.4348
▁zoon	-11.4348
iteach	-11.4353
ealaigh	-11.4354
eeft	-11.4355
▁Mala	-11.4356
lijkt	-11.4357
maken	-11.4359
▁lots	-11.4359
ej	-11.4364
▁observations	-11.4367
▁script	-11.4368
▁98	-11.4368
▁rap	-11.4372
lfa	-11.4376
▁formation	-11.438
▁delante	-11.438
map	-11.4381
▁Pont	-11.4381
▁’	-11.4386
▁Asian	-11.4388
▁permitir	-11.4389
uizen	-11.4389
Doctor	-11.4392
style	-11.4393
gebruik	-11.4395
▁namely	-11.4396
▁vitamin	-11.4396
logy	-11.4398
▁allowances	-11.4398
abling	-11.4399
▁stick	-11.44
▁mara	-11.4401
aciÃ	-11.4401
▁refund	-11.4403
▁déantar	-11.4403
wissel	-11.4404
▁categorie	-11.4404
▁Right	-11.4405
▁candidates	-11.4405
claim	-11.4406
▁Cover	-11.4407
ijf	-11.4407
▁slaapkamer	-11.4409
▁casas	-11.4412
▁mor	-11.4413
▁unidad	-11.4413
ried	-11.4415
áthair	-11.4417
▁Fur	-11.4418
BR	-11.4419
▁crop	-11.442
▁encontr	-11.4423
▁ships	-11.4424
▁trend	-11.4425
mount	-11.4426
▁timpeall	-11.4426
face	-11.4427
▁tradicional	-11.4427
▁bhean	-11.4429
:19	-11.4432
▁mountains	-11.4432
▁Wire	-11.4432
▁Tan	-11.4433
▁SC	-11.4434
▁Pé	-11.4437
ALL	-11.4438
sburg	-11.444
ˆ	-11.4444
▁Exhibition	-11.4444
▁Teagasc	-11.4444
▁Tionscail	-11.4444
▁cúpla	-11.4444
▁feiceáil	-11.4444
▁ndéanamh	-11.4444
▁térmica	-11.4444
▁valuation	-11.4444
▁ámbito	-11.4444
▁PayPal	-11.4444
▁extranjero	-11.4444
▁policía	-11.4444
▁premium	-11.4444
▁chapter	-11.4444
▁fianáin	-11.4444
▁Alliance	-11.4444
▁Component	-11.4444
▁Zealand	-11.4444
▁geplaatst	-11.4444
▁achtachán	-11.4444
▁mantenimiento	-11.4444
▁senior	-11.4444
▁razones	-11.4444
▁influencia	-11.4444
▁Wasmachine	-11.4444
▁caitheamh	-11.4444
▁croí	-11.4444
▁achtergrond	-11.4444
▁fhomhír	-11.4444
▁vrijdag	-11.4444
▁bhainistiú	-11.4444
▁Urban	-11.4445
▁deontas	-11.4445
▁ketting	-11.4445
▁punishment	-11.4445
▁théann	-11.4445
▁minibar	-11.4446
▁collective	-11.4446
▁iascaigh	-11.4446
▁1984	-11.4447
▁iontu	-11.4447
▁Fue	-11.4447
▁1979	-11.4448
▁crité	-11.4449
mill	-11.4449
▁Poker	-11.4449
lone	-11.445
▁garage	-11.445
▁Luz	-11.445
▁1947	-11.4451
▁LCD	-11.4451
▁Sales	-11.4451
▁beroemd	-11.4452
▁éifeachtaí	-11.4453
▁Oideachas	-11.4453
▁waarvan	-11.4453
▁chaill	-11.4454
▁participantes	-11.4454
▁FDA	-11.4454
▁gender	-11.4455
▁recognised	-11.4456
▁houdt	-11.4457
▁impacto	-11.446
▁zit	-11.446
kens	-11.446
▁Events	-11.4461
DH	-11.4462
▁sides	-11.4463
▁zw	-11.4464
▁patterns	-11.4464
▁eerst	-11.4466
▁belt	-11.4466
▁showed	-11.4468
▁fourth	-11.447
▁enfermedades	-11.4471
▁Optim	-11.4473
▁drama	-11.4473
Do	-11.4476
zien	-11.4477
▁bestaan	-11.4478
bad	-11.4478
▁Neem	-11.4479
▁grade	-11.4479
▁desired	-11.4481
▁17,	-11.4482
▁roman	-11.4484
▁ordenador	-11.4487
fhéadf	-11.4489
▁brush	-11.4489
▁Wooden	-11.4493
LAND	-11.4493
▁globally	-11.4494
▁mucha	-11.4496
▁phlean	-11.4497
Gran	-11.4497
▁allá	-11.4498
▁Beat	-11.4499
▁ranníoc	-11.45
▁prepara	-11.4503
▁Naam	-11.4505
Op	-11.4506
▁gearr	-11.4507
athar	-11.4508
▁Ev	-11.451
▁Maak	-11.451
▁fhéadfa	-11.4511
▁presents	-11.4514
cover	-11.4515
▁communications	-11.4515
▁beo	-11.4516
▁gradu	-11.4524
ridge	-11.4525
motor	-11.4526
▁Alba	-11.453
▁gesto	-11.4531
RU	-11.4532
oide	-11.4535
▁merc	-11.4536
▁Groen	-11.4538
láin	-11.4538
▁surf	-11.4538
▁collectie	-11.4539
▁athruithe	-11.454
▁calm	-11.4542
▁concentra	-11.4542
▁rotat	-11.4543
▁aisíoc	-11.4546
▁encim	-11.4547
▁buyer	-11.4547
tia	-11.4548
cate	-11.4551
Girl	-11.4562
HR	-11.4566
▁cualquiera	-11.4568
▁bush	-11.4568
fhéidir	-11.4569
▁araon	-11.457
ius	-11.4571
▁drinks	-11.4573
shirt	-11.4574
-02	-11.4575
ACH	-11.4575
▁plean	-11.4578
zetten	-11.4579
▁module	-11.4585
▁chion	-11.4589
eau	-11.459
▁Communication	-11.4591
▁experiencias	-11.4596
▁Payment	-11.4599
▁lies	-11.4599
▁fondo	-11.4602
▁pack	-11.4604
:3	-11.4606
▁connections	-11.4611
uga	-11.4611
trouw	-11.4612
▁schemes	-11.4615
▁Mix	-11.4616
▁juli	-11.4616
▁ndearna	-11.462
▁angle	-11.4621
▁84	-11.4621
▁móra	-11.4622
▁schoon	-11.4622
▁Bitcoin	-11.4622
▁Chontae	-11.4622
▁Delegation	-11.4622
▁Ginearálta	-11.4622
▁Muhammad	-11.4622
▁Winstrol	-11.4622
▁cannabis	-11.4622
▁exposure	-11.4622
▁huéspedes	-11.4622
▁líomatáist	-11.4622
▁opposite	-11.4622
▁resolución	-11.4622
▁satélite	-11.4622
▁testosteron	-11.4622
▁treoracha	-11.4622
▁África	-11.4622
č	-11.4622
▁colección	-11.4622
▁plenty	-11.4622
▁twelve	-11.4622
▁Release	-11.4622
▁dírithe	-11.4622
▁forordaithe	-11.4622
▁gloine	-11.4622
▁Wheel	-11.4622
▁compartir	-11.4622
▁murder	-11.4622
▁Spáinn	-11.4623
▁Skills	-11.4623
▁corpraithe	-11.4623
▁ocurri	-11.4623
▁envío	-11.4623
▁intereses	-11.4623
▁empleo	-11.4623
mexico	-11.4623
▁gedaan	-11.4623
▁cristal	-11.4623
▁mbeart	-11.4623
▁kleden	-11.4623
▁funcionamiento	-11.4623
▁privé	-11.4623
▁oibríochtaí	-11.4623
▁ithir	-11.4624
▁Controller	-11.4625
▁overleden	-11.4626
▁1964	-11.4627
▁gevallen	-11.4627
▁daarom	-11.4627
▁1937	-11.4627
▁reducción	-11.4627
▁Chuideachta	-11.4628
▁juice	-11.4628
▁jugadores	-11.4629
▁gezicht	-11.4629
▁rand	-11.463
▁Tabhair	-11.4632
fund	-11.4633
▁aquel	-11.4633
▁autoridades	-11.4634
2019	-11.4635
▁stiúrthóirí	-11.4636
▁supuesto	-11.4636
▁flores	-11.4636
▁dominio	-11.4637
▁Fearr	-11.4638
▁30%	-11.4641
▁Porque	-11.4642
▁gre	-11.4642
▁respective	-11.4643
▁gua	-11.4643
▁Rad	-11.4643
▁volgen	-11.4644
film	-11.4644
▁Hart	-11.4645
▁Space	-11.4646
▁oferta	-11.4646
child	-11.4647
▁differences	-11.4651
▁sentir	-11.4652
▁inspired	-11.4653
▁bestellen	-11.4654
ARD	-11.4662
▁Shin	-11.4663
:15	-11.4665
▁Item	-11.4666
igi	-11.4666
▁levering	-11.467
▁\	-11.467
▁adventure	-11.4671
▁Rey	-11.4672
bealach	-11.4677
sex	-11.4677
ugtar	-11.4678
▁printed	-11.4679
▁técnicas	-11.468
▁occurs	-11.468
▁13,	-11.468
On	-11.4682
▁Str	-11.4683
▁Grote	-11.4685
Man	-11.4686
▁attacks	-11.4687
▁sho	-11.469
▁(6	-11.4697
tron	-11.4704
▁Gem	-11.4705
▁optie	-11.4705
▁blow	-11.4707
▁galar	-11.4708
▁coal	-11.471
Chi	-11.4711
▁diapers	-11.4712
▁roads	-11.4713
▁Hum	-11.4714
lines	-11.4717
tional	-11.472
▁veilig	-11.472
▁Bot	-11.4722
▁trap	-11.4722
▁pati	-11.4723
flex	-11.4725
▁tiendas	-11.4725
▁demo	-11.4725
▁TS	-11.4726
▁raw	-11.4729
▁addresses	-11.4729
▁scair	-11.473
▁bean	-11.473
▁clases	-11.4731
▁older	-11.4731
▁SS	-11.4732
▁beat	-11.4733
dha	-11.4734
▁Sri	-11.4734
▁afecta	-11.4737
2009	-11.4737
▁faighte	-11.4737
known	-11.4738
eachtaí	-11.4741
Hz	-11.4742
▁Horn	-11.4749
Soft	-11.4753
rijk	-11.4757
What	-11.4759
▁legs	-11.4761
▁Ou	-11.4763
▁arms	-11.4765
▁Arena	-11.4766
▁processor	-11.4768
illos	-11.477
▁(23	-11.4772
▁meal	-11.4773
▁Continue	-11.4774
▁Guest	-11.4778
▁esencial	-11.478
▁winding	-11.4783
▁hack	-11.4785
TU	-11.4786
▁Boek	-11.4786
▁patron	-11.4789
▁dose	-11.4791
▁dient	-11.4791
▁topics	-11.4793
▁lived	-11.4794
effect	-11.4794
▁Award	-11.4798
▁preocupa	-11.48
▁savings	-11.4802
▁career	-11.4802
▁Municipal	-11.4802
▁parketvloer	-11.4804
▁Activities	-11.4804
▁Departamento	-11.4804
▁Extension	-11.4804
▁Generator	-11.4804
▁Grianchloch	-11.4804
▁Nicaragua	-11.4804
▁Speisialta	-11.4804
▁Trenbolone	-11.4804
▁dliteanais	-11.4804
▁increíble	-11.4804
▁tógáil	-11.4804
▁worship	-11.4804
▁zaterdag	-11.4804
▁Battery	-11.4804
▁dergelijke	-11.4804
▁fhoilsiú	-11.4804
▁labhairt	-11.4804
▁leigheas	-11.4804
▁evaluate	-11.4804
▁alguien	-11.4804
▁welfare	-11.4804
▁mínimo	-11.4804
▁brengt	-11.4804
▁scenario	-11.4804
▁casual	-11.4804
▁facing	-11.4804
▁Alexander	-11.4804
▁competencia	-11.4804
▁Kleur	-11.4804
▁contemporary	-11.4804
▁manipul	-11.4805
▁pinsin	-11.4805
▁distintos	-11.4805
▁gheimhridh	-11.4805
▁regalo	-11.4805
▁Uisce	-11.4805
▁violent	-11.4805
▁Library	-11.4805
▁steden	-11.4805
▁Organización	-11.4805
▁surrounding	-11.4805
▁Binnen	-11.4805
▁caliente	-11.4806
▁ghrian	-11.4806
▁Finland	-11.4806
▁tharlaíonn	-11.4806
▁VPN	-11.4807
▁adding	-11.4807
Europa	-11.4807
▁cumas	-11.4807
▁prosecution	-11.4807
▁flujo	-11.4808
eric	-11.4808
▁tight	-11.4808
▁propone	-11.4809
▁aspectos	-11.4809
▁Leanaí	-11.4809
▁concentration	-11.481
▁Lucas	-11.481
▁1991	-11.481
▁integration	-11.4811
▁Informa	-11.4811
▁DU	-11.4811
▁Daarna	-11.4811
▁fiber	-11.4812
▁Amplifier	-11.4812
▁reception	-11.4813
▁Gua	-11.4813
▁Ansin	-11.4814
▁Poland	-11.4814
▁orange	-11.4815
▁Java	-11.4815
▁Pink	-11.4815
▁voorkomen	-11.4816
▁ruin	-11.4817
▁VAT	-11.4818
▁autoverhuur	-11.4818
▁verbinding	-11.4818
rás	-11.4818
▁rit	-11.4818
▁comhad	-11.4819
ondergang	-11.482
▁hond	-11.482
▁observe	-11.4821
▁dura	-11.4821
▁opkomst	-11.4822
▁gathered	-11.4822
▁nG	-11.4823
▁achievement	-11.4823
▁www	-11.4826
athrú	-11.4826
▁cúrsaí	-11.4827
▁fuego	-11.4827
▁greatest	-11.4827
▁Deput	-11.4827
▁Prof	-11.4828
▁Eye	-11.483
▁dtabharfar	-11.483
▁óir	-11.4834
▁comhar	-11.4839
kar	-11.484
▁Beste	-11.484
▁Ever	-11.484
▁Perú	-11.4842
/2009	-11.4844
▁Cuideachta	-11.4846
▁Banco	-11.4848
▁bid	-11.4848
▁electoral	-11.4848
▁situations	-11.485
éirigh	-11.485
▁Fine	-11.4852
▁Vind	-11.4852
▁perder	-11.4855
▁Mha	-11.4858
▁urge	-11.4859
▁360	-11.4861
▁drawn	-11.4861
▁Leasa	-11.4865
▁ruta	-11.4866
▁voort	-11.4867
▁víctimas	-11.4868
▁duur	-11.4869
▁teachtaireacht	-11.487
▁Through	-11.4873
▁defender	-11.4876
ppel	-11.4878
▁recibe	-11.4879
▁Stamp	-11.4879
▁afhankelijk	-11.4881
ancy	-11.4882
tisch	-11.4882
▁max	-11.4884
komst	-11.4886
▁thin	-11.4886
mechani	-11.4886
▁marks	-11.4887
▁fea	-11.4888
▁Sla	-11.4888
▁langs	-11.4893
PT	-11.4897
▁sat	-11.4898
ilde	-11.4901
oxy	-11.4902
▁gun	-11.4902
▁necesitan	-11.4904
▁oog	-11.4906
▁hA	-11.4907
▁HE	-11.4908
ilton	-11.491
▁paragraphs	-11.4914
lick	-11.4914
XX	-11.4915
▁Dear	-11.4915
▁Máx	-11.4917
tén	-11.4922
mination	-11.4924
ografía	-11.4926
▁lessons	-11.4928
lm	-11.4929
▁réims	-11.4933
▁77	-11.4933
▁evento	-11.4934
Aibreán	-11.4937
informatie	-11.4937
▁potencia	-11.4942
▁VAN	-11.4942
▁knows	-11.4945
fheidhmiú	-11.4945
sterren	-11.4945
burn	-11.4946
▁Ee	-11.495
▁decidi	-11.4951
dóir	-11.4952
▁iom	-11.4955
▁Pur	-11.4956
chat	-11.4956
▁journal	-11.4956
mple	-11.4958
▁cierto	-11.4958
▁método	-11.4959
▁Franc	-11.496
▁destaca	-11.4969
▁86	-11.4974
▁reun	-11.4977
▁Connect	-11.4977
▁hero	-11.4978
▁absolute	-11.4979
ráfico	-11.498
▁rechts	-11.498
▁Hijo	-11.4982
▁restaurantes	-11.4983
▁brí	-11.4983
▁óga	-11.4986
factor	-11.4987
▁dormitorios	-11.4987
▁ster	-11.4987
▁restaura	-11.4988
▁chreid	-11.4989
▁Bhallstát	-11.4989
▁Cathedral	-11.4989
▁bevriezing	-11.4989
▁déileáil	-11.4989
▁frequency	-11.4989
▁lluvia	-11.4989
▁province	-11.4989
▁próximo	-11.4989
▁revenue	-11.4989
▁technische	-11.4989
▁territorio	-11.4989
▁toegestaan	-11.4989
▁Supplement	-11.4989
▁Vergelijk	-11.4989
▁posterior	-11.4989
▁spóirt	-11.4989
▁Seoladh	-11.4989
▁inclusive	-11.4989
▁dlínse	-11.499
▁Annual	-11.499
ghabhála	-11.499
▁ealaíne	-11.499
▁activist	-11.499
▁criterio	-11.499
▁regelmatig	-11.499
▁seasamh	-11.499
▁foregoing	-11.499
▁chóireáil	-11.499
▁deontais	-11.499
▁próiseas	-11.499
▁parallel	-11.499
▁faoiseamh	-11.499
▁hArd	-11.499
▁proberen	-11.499
▁prensa	-11.499
▁Studies	-11.499
▁Theatre	-11.499
▁chinnfidh	-11.499
▁Movie	-11.499
▁essence	-11.4991
11-14	-11.4991
▁gairmiúla	-11.4991
▁Léigh	-11.4991
▁kick	-11.4991
▁wireless	-11.4991
▁Eolas	-11.4991
▁caighdeáin	-11.4991
▁moneda	-11.4992
▁LG	-11.4992
▁tien	-11.4992
▁understood	-11.4992
▁carretera	-11.4993
▁resistencia	-11.4993
▁exam	-11.4994
▁Ideal	-11.4994
▁facility	-11.4994
▁Advanced	-11.4994
▁aankomst	-11.4994
▁optreden	-11.4994
▁eléctrica	-11.4995
▁Zoom	-11.4995
▁PU	-11.4995
▁Whenever	-11.4996
▁Beautiful	-11.4996
▁MAR	-11.4996
▁contrario	-11.4996
sanitary	-11.4997
▁normas	-11.4998
CM	-11.4999
▁cafe	-11.4999
▁Gala	-11.4999
▁Turn	-11.4999
▁finger	-11.4999
▁Partner	-11.5
▁chomhair	-11.5
▁Duine	-11.5
ividad	-11.5001
▁celebration	-11.5002
▁fabriek	-11.5003
▁Aseo	-11.5003
churtha	-11.5003
▁clothes	-11.5004
▁begrijpen	-11.5004
▁unieke	-11.5004
▁copia	-11.5005
▁Zip	-11.5005
abhrach	-11.5005
IDA	-11.5006
▁reducing	-11.5009
▁concluded	-11.5009
▁Aero	-11.5009
▁ajuste	-11.501
▁furnished	-11.5012
▁nieve	-11.5012
▁auditor	-11.5014
mak	-11.5015
▁73	-11.5015
▁Never	-11.5016
▁deis	-11.5017
rische	-11.5017
▁perfecta	-11.502
▁partij	-11.5021
▁craft	-11.5023
▁ruime	-11.5024
▁seachtaine	-11.5024
▁boil	-11.5024
▁dump	-11.5025
▁Sraith	-11.5025
▁grootte	-11.503
▁notes	-11.5033
▁Teaching	-11.5033
ieke	-11.5034
▁Naciones	-11.5034
▁nD	-11.5036
▁mask	-11.5036
cimiento	-11.5036
▁unidades	-11.5036
▁interna	-11.5039
tgedeelte	-11.5039
reasonably	-11.504
▁richting	-11.5042
razo	-11.5044
▁gardens	-11.5046
amel	-11.5051
▁CS	-11.5051
file	-11.5051
▁Bursa	-11.5058
▁injury	-11.506
▁WA	-11.5061
▁reservar	-11.5061
▁proposals	-11.5061
▁beaches	-11.5062
▁gníomhach	-11.5062
▁learned	-11.5062
▁Hem	-11.5064
▁equi	-11.5065
▁Ton	-11.5066
▁Corte	-11.5069
▁trace	-11.507
▁saved	-11.5071
▁cultivo	-11.5072
zuur	-11.5073
gur	-11.5075
▁cercano	-11.5076
wards	-11.5076
▁coincid	-11.5078
iminación	-11.5085
▁talking	-11.5087
▁Pop	-11.5088
▁íocaíochta	-11.5089
ched	-11.5089
▁zak	-11.5093
▁respects	-11.5093
actie	-11.5094
▁Indi	-11.5102
▁marking	-11.5102
▁predic	-11.5104
▁Ok	-11.5107
▁Engine	-11.5108
▁Cinn	-11.5108
▁“...	-11.5108
▁Hans	-11.5112
▁fares	-11.5112
▁ionadaí	-11.5112
▁thereto	-11.5112
▁Phil	-11.5114
FL	-11.5117
▁improved	-11.5119
▁gé	-11.5119
▁Saor	-11.5119
▁comenzar	-11.5119
250	-11.5121
▁gléas	-11.5122
conf	-11.5124
▁consulta	-11.5125
▁hydro	-11.5125
pé	-11.5129
▁vermeld	-11.5129
pagina	-11.5129
▁gather	-11.513
▁Plean	-11.5133
▁91	-11.5135
club	-11.5135
▁forced	-11.5136
OB	-11.5137
▁geest	-11.5138
speed	-11.5139
gimen	-11.5139
market	-11.514
▁Sche	-11.514
▁Ye	-11.5142
▁TI	-11.5144
▁onbeha	-11.5146
▁eje	-11.5147
▁letters	-11.5148
▁ging	-11.5148
:10	-11.5149
▁dispositivos	-11.5154
gezien	-11.5154
▁€2	-11.5155
▁Oz	-11.5156
▁tape	-11.5156
▁chearta	-11.5157
▁neem	-11.5157
▁corrupt	-11.5157
drukken	-11.5158
▁repeal	-11.516
▁SP	-11.5164
▁Leon	-11.5165
wet	-11.5165
▁uirlis	-11.5167
▁rijk	-11.5167
▁thy	-11.5167
▁eiland	-11.5169
-60	-11.5171
bility	-11.5171
▁Fri	-11.5171
▁instrumento	-11.5177
▁PARLIAMENT	-11.5178
▁Straitéis	-11.5178
▁Threoir	-11.5178
▁científico	-11.5178
▁suplemento	-11.5178
uarascálacha	-11.5178
▁Categoría	-11.5178
▁Cathaoirleach	-11.5178
▁Donderdag	-11.5178
▁Hungary	-11.5178
▁Massachusetts	-11.5178
▁Sóisialta	-11.5178
▁Utrecht	-11.5178
▁disappear	-11.5178
▁geweest	-11.5178
▁harvest	-11.5178
▁ourselves	-11.5178
▁próxima	-11.5178
▁sábado	-11.5178
▁woensdag	-11.5178
▁crowd	-11.5178
▁turismo	-11.5178
▁época	-11.5178
▁Alguno	-11.5178
▁Paradise	-11.5178
▁Graphic	-11.5178
▁Parijs	-11.5178
▁suspect	-11.5178
▁Communities	-11.5178
▁dliteanas	-11.5178
▁dialogue	-11.5178
▁tirim	-11.5178
leibhéil	-11.5178
▁satisfaction	-11.5178
▁Volume	-11.5179
▁pretty	-11.5179
▁violencia	-11.5179
▁screw	-11.5179
misschien	-11.5179
▁importancia	-11.5179
▁mbainfidh	-11.5179
▁Primary	-11.5179
▁customized	-11.5179
▁discipline	-11.5179
▁onderdelen	-11.518
▁Issue	-11.518
▁instalar	-11.518
▁praise	-11.518
▁Terrace	-11.518
▁lenguaje	-11.5181
▁calculation	-11.5181
▁taifid	-11.5181
▁cuyo	-11.5181
▁empty	-11.5181
▁cord	-11.5182
▁exemption	-11.5183
▁interpretation	-11.5183
▁dathanna	-11.5183
▁Thug	-11.5185
▁Supplier	-11.5185
▁probar	-11.5185
▁Balance	-11.5185
▁1965	-11.5186
▁equipada	-11.5186
▁contamin	-11.5187
▁ghearradh	-11.5187
▁entender	-11.5187
▁absolutely	-11.5188
▁modified	-11.5188
DL	-11.5189
▁assistant	-11.519
:14	-11.519
».	-11.5191
▁tumor	-11.5192
▁lands	-11.5192
▁eigenaar	-11.5192
▁transactions	-11.5193
▁Highway	-11.5194
▁Heart	-11.5194
▁Pool	-11.5195
▁verano	-11.5199
▁ahí	-11.52
líne	-11.5201
▁Spot	-11.5202
▁cruinn	-11.5203
▁coating	-11.5204
▁geb	-11.5204
▁Cook	-11.5206
IÚ	-11.5208
▁cine	-11.5209
otto	-11.5211
▁Otra	-11.5211
▁gcásanna	-11.5214
▁Bulb	-11.5215
▁hija	-11.5216
▁chorp	-11.5217
▁ceist	-11.5217
spanning	-11.5219
aya	-11.5221
▁slaapkamers	-11.5222
ogram	-11.5226
▁Awards	-11.5228
▁kil	-11.5229
kracht	-11.523
▁dtreo	-11.5232
▁jou	-11.5232
▁kerk	-11.5233
▁Frans	-11.5234
▁Casas	-11.5235
▁flowering	-11.5236
▁feeding	-11.5236
▁genre	-11.5237
▁trailer	-11.5237
▁hadden	-11.5239
cionales	-11.5239
conditioned	-11.5241
▁potent	-11.5243
▁utilizan	-11.5244
▁aporta	-11.5248
lín	-11.5249
▁3.5	-11.525
▁objetivos	-11.525
léi	-11.5252
▁coach	-11.5252
▁fighting	-11.5253
they	-11.5253
ijnen	-11.5256
▁Pot	-11.5259
▁mensajes	-11.5259
omi	-11.5259
lights	-11.5263
▁origen	-11.5263
INA	-11.5263
▁regula	-11.5263
▁forget	-11.5264
volv	-11.5266
Am	-11.5268
And	-11.5268
▁staid	-11.527
edge	-11.527
▁iarratasóir	-11.5273
▁Lee	-11.5275
ception	-11.5276
▁Ir	-11.5277
▁dimension	-11.5281
▁Route	-11.5284
▁coste	-11.5287
▁branda	-11.5288
▁Thai	-11.529
▁medicamentos	-11.5291
▁errors	-11.5292
lár	-11.5294
▁nabij	-11.5295
▁Kur	-11.5297
▁fheidhm	-11.53
Cam	-11.5303
▁Skin	-11.5307
▁streets	-11.5314
iomlán	-11.5315
▁94	-11.5315
▁Atha	-11.5315
▁pruebas	-11.5315
▁Pic	-11.5316
pper	-11.5317
functie	-11.5318
▁looked	-11.5318
▁Leis	-11.5318
computer	-11.5319
▁Haga	-11.5319
gram	-11.532
proof	-11.5321
▁individu	-11.5323
aka	-11.5325
▁army	-11.5326
istische	-11.5327
oibriú	-11.5329
▁NH	-11.533
▁Toe	-11.5331
▁Cineál	-11.5336
▁proporcionar	-11.5336
▁ús	-11.5337
▁RS	-11.5337
▁Oh	-11.5337
▁Sean	-11.5339
[...]
